{
  "version": "1.0",
  "truncation": null,
  "padding": null,
  "added_tokens": [
    {
      "id": 0,
      "content": "<cls>",
      "single_word": false,
      "lstrip": false,
      "rstrip": false,
      "normalized": false,
      "special": true
    },
    {
      "id": 1,
      "content": "<sep>",
      "single_word": false,
      "lstrip": false,
      "rstrip": false,
      "normalized": false,
      "special": true
    },
    {
      "id": 3,
      "content": "<pad>",
      "single_word": false,
      "lstrip": false,
      "rstrip": false,
      "normalized": false,
      "special": true
    },
    {
      "id": 4,
      "content": "<mask>",
      "single_word": false,
      "lstrip": false,
      "rstrip": false,
      "normalized": false,
      "special": true
    },
    {
      "id": 5,
      "content": "<s>",
      "single_word": false,
      "lstrip": false,
      "rstrip": false,
      "normalized": false,
      "special": true
    },
    {
      "id": 6,
      "content": "</s>",
      "single_word": false,
      "lstrip": false,
      "rstrip": false,
      "normalized": false,
      "special": true
    },
    {
      "id": 16,
      "content": "<unk>",
      "single_word": false,
      "lstrip": false,
      "rstrip": false,
      "normalized": false,
      "special": true
    }
  ],
  "normalizer": {
    "type": "Sequence",
    "normalizers": [
      {
        "type": "Replace",
        "pattern": {
          "Regex": "[^ -~]+"
        },
        "content": "<unk>"
      },
      {
        "type": "Replace",
        "pattern": {
          "String": "``"
        },
        "content": "\""
      },
      {
        "type": "Replace",
        "pattern": {
          "String": "''"
        },
        "content": "\""
      },
      {
        "type": "NFKD"
      },
      {
        "type": "StripAccents"
      },
      {
        "type": "Replace",
        "pattern": {
          "Regex": " {2,}"
        },
        "content": " "
      }
    ]
  },
  "pre_tokenizer": {
    "type": "Metaspace",
    "replacement": "▁",
    "add_prefix_space": true
  },
  "post_processor": {
    "type": "TemplateProcessing",
    "single": [
      {
        "Sequence": {
          "id": "A",
          "type_id": 0
        }
      },
      {
        "SpecialToken": {
          "id": "<sep>",
          "type_id": 0
        }
      },
      {
        "SpecialToken": {
          "id": "<cls>",
          "type_id": 2
        }
      }
    ],
    "pair": [
      {
        "Sequence": {
          "id": "A",
          "type_id": 0
        }
      },
      {
        "SpecialToken": {
          "id": "<sep>",
          "type_id": 0
        }
      },
      {
        "Sequence": {
          "id": "B",
          "type_id": 1
        }
      },
      {
        "SpecialToken": {
          "id": "<sep>",
          "type_id": 1
        }
      },
      {
        "SpecialToken": {
          "id": "<cls>",
          "type_id": 2
        }
      }
    ],
    "special_tokens": {
      "<cls>": {
        "id": "<cls>",
        "ids": [
          0
        ],
        "tokens": [
          "<cls>"
        ]
      },
      "<sep>": {
        "id": "<sep>",
        "ids": [
          1
        ],
        "tokens": [
          "<sep>"
        ]
      }
    }
  },
  "decoder": {
    "type": "Metaspace",
    "replacement": "▁",
    "add_prefix_space": true
  },
  "model": {
    "type": "Unigram",
    "unk_id": 2,
    "vocab": [
      [
        "<cls>",
        0.0
      ],
      [
        "<sep>",
        0.0
      ],
      [
        "<unk>",
        0.0
      ],
      [
        "<pad>",
        0.0
      ],
      [
        "<mask>",
        0.0
      ],
      [
        "<s>",
        0.0
      ],
      [
        "</s>",
        0.0
      ],
      [
        "▁",
        -3.313626153059749
      ],
      [
        "s",
        -3.495847348449331
      ],
      [
        "▁the",
        -3.7224609234737756
      ],
      [
        ",",
        -3.825109346818511
      ],
      [
        "▁||",
        -3.923872831481189
      ],
      [
        ".",
        -3.979990026900909
      ],
      [
        "▁of",
        -4.177555743706607
      ],
      [
        "▁in",
        -4.305255855172474
      ],
      [
        "▁and",
        -4.498874206240705
      ],
      [
        "<unk>",
        -4.507975837010402
      ],
      [
        "▁a",
        -4.5583813056338105
      ],
      [
        "d",
        -4.5808949354421955
      ],
      [
        "▁<unk>",
        -4.815818236279814
      ],
      [
        "▁is",
        -4.892041497480182
      ],
      [
        "▁to",
        -4.914787055351955
      ],
      [
        "e",
        -5.122555932436825
      ],
      [
        "▁was",
        -5.162910519785701
      ],
      [
        "a",
        -5.197170977377336
      ],
      [
        "ed",
        -5.268901438090701
      ],
      [
        "ing",
        -5.347937833510551
      ],
      [
        "y",
        -5.395960590086382
      ],
      [
        "n",
        -5.411758034255975
      ],
      [
        "▁The",
        -5.489596304129202
      ],
      [
        "t",
        -5.572023617344316
      ],
      [
        ")",
        -5.585636483059952
      ],
      [
        "o",
        -5.64508765285113
      ],
      [
        "-",
        -5.647576288682297
      ],
      [
        "er",
        -5.695968055711763
      ],
      [
        "▁for",
        -5.705401564968195
      ],
      [
        "al",
        -5.710974674401962
      ],
      [
        "▁from",
        -5.730595921825378
      ],
      [
        "▁(",
        -5.75163313736906
      ],
      [
        "▁on",
        -5.808102996226534
      ],
      [
        "r",
        -5.809824914688004
      ],
      [
        "|",
        -5.861518682766077
      ],
      [
        "i",
        -5.874097649653859
      ],
      [
        "▁by",
        -5.91515704488293
      ],
      [
        "▁as",
        -5.929506396048868
      ],
      [
        "6",
        -5.943653926625043
      ],
      [
        "align=right",
        -6.0053759150338735
      ],
      [
        "in",
        -6.008539804382227
      ],
      [
        "▁A",
        -6.009223570176882
      ],
      [
        "▁He",
        -6.014103339303881
      ],
      [
        "▁km",
        -6.014925989318765
      ],
      [
        "▁bgcolor=#",
        -6.017560159369253
      ],
      [
        ")<unk>",
        -6.021138177023612
      ],
      [
        "<unk>|",
        -6.064995256007089
      ],
      [
        "on",
        -6.079157349797944
      ],
      [
        "▁with",
        -6.144693983745185
      ],
      [
        "▁It",
        -6.1625382373764985
      ],
      [
        "th",
        -6.164780056352491
      ],
      [
        "▁that",
        -6.1658863207737475
      ],
      [
        "||",
        -6.180616652574395
      ],
      [
        "▁are",
        -6.193080315942195
      ],
      [
        "or",
        -6.199266993852746
      ],
      [
        "\"",
        -6.206849662709944
      ],
      [
        "f",
        -6.223608104949042
      ],
      [
        "'s",
        -6.227514540004405
      ],
      [
        "l",
        -6.249011375569831
      ],
      [
        "m",
        -6.250694798729331
      ],
      [
        "▁S",
        -6.256730912170305
      ],
      [
        "an",
        -6.259473888171703
      ],
      [
        ":",
        -6.264384476618478
      ],
      [
        "19",
        -6.265690412579575
      ],
      [
        "▁at",
        -6.266939209461057
      ],
      [
        "ly",
        -6.285120338775659
      ],
      [
        "▁an",
        -6.297247873022968
      ],
      [
        "k",
        -6.298338354625489
      ],
      [
        "le",
        -6.3073375561802365
      ],
      [
        "re",
        -6.337018263968556
      ],
      [
        "s,",
        -6.348146885412239
      ],
      [
        "s.",
        -6.373572089732384
      ],
      [
        "ar",
        -6.382592280034013
      ],
      [
        "en",
        -6.388255277526197
      ],
      [
        "▁he",
        -6.480625416696274
      ],
      [
        "c",
        -6.482509791124475
      ],
      [
        "▁-",
        -6.486943055658372
      ],
      [
        "g",
        -6.488951313573798
      ],
      [
        "u",
        -6.509273599757783
      ],
      [
        "ic",
        -6.521997980110454
      ],
      [
        "ra",
        -6.530826117709749
      ],
      [
        "▁his",
        -6.545731829809585
      ],
      [
        "▁people",
        -6.5468146702204795
      ],
      [
        "▁re",
        -6.549723235621151
      ],
      [
        "▁be",
        -6.556135752573805
      ],
      [
        "se",
        -6.567716138846537
      ],
      [
        "h",
        -6.5789967577670865
      ],
      [
        "▁it",
        -6.584196421447604
      ],
      [
        "es",
        -6.5859896596737215
      ],
      [
        "▁Soc",
        -6.599359480686978
      ],
      [
        ".<unk>References",
        -6.60154726920215
      ],
      [
        "▁or",
        -6.602763176495527
      ],
      [
        "▁E",
        -6.603811080320606
      ],
      [
        "▁C",
        -6.620964527298991
      ],
      [
        "la",
        -6.62126744834174
      ],
      [
        "ri",
        -6.622893607916398
      ],
      [
        "▁In",
        -6.627618615028073
      ],
      [
        "ne",
        -6.634779296614559
      ],
      [
        "li",
        -6.639423895027228
      ],
      [
        "orro",
        -6.643087460135256
      ],
      [
        "ur",
        -6.649819084582852
      ],
      [
        ".<unk>",
        -6.6550945931468295
      ],
      [
        "EAR",
        -6.6563974311802365
      ],
      [
        "▁LIN",
        -6.656998218481911
      ],
      [
        "ce",
        -6.677480267593944
      ],
      [
        "el",
        -6.68080146394319
      ],
      [
        "il",
        -6.692806852420398
      ],
      [
        "▁F",
        -6.705731380315971
      ],
      [
        "▁American",
        -6.709706655807977
      ],
      [
        "na",
        -6.723964061877533
      ],
      [
        "p",
        -6.731594844983446
      ],
      [
        "▁de",
        -6.7340739464023684
      ],
      [
        "b",
        -6.744032336801393
      ],
      [
        "st",
        -6.74943247591113
      ],
      [
        "▁also",
        -6.7592877970208
      ],
      [
        "1",
        -6.771757926617923
      ],
      [
        "▁has",
        -6.778829878511942
      ],
      [
        "us",
        -6.782503232398042
      ],
      [
        "▁18",
        -6.789655533158372
      ],
      [
        "w",
        -6.794758838716222
      ],
      [
        "2",
        -6.8047300602241965
      ],
      [
        "▁were",
        -6.812600910962177
      ],
      [
        "ma",
        -6.816204243433411
      ],
      [
        "ro",
        -6.817056030518691
      ],
      [
        "lo",
        -6.836744762366028
      ],
      [
        "it",
        -6.842171063952881
      ],
      [
        "▁K",
        -6.848871646240884
      ],
      [
        "at",
        -6.852941910679821
      ],
      [
        "▁not",
        -6.85575537823488
      ],
      [
        "is",
        -6.859798036066843
      ],
      [
        "),",
        -6.879055110679598
      ],
      [
        "▁O",
        -6.888590772545307
      ],
      [
        "▁B",
        -6.900960011902386
      ],
      [
        "▁p",
        -6.909281109545887
      ],
      [
        "▁N",
        -6.921419492308386
      ],
      [
        "efe",
        -6.940319008530896
      ],
      [
        "ry",
        -6.948858621456935
      ],
      [
        "te",
        -6.95406904902311
      ],
      [
        "ir",
        -6.962008571715309
      ],
      [
        "et",
        -6.965172976381899
      ],
      [
        "▁United",
        -6.973621202045688
      ],
      [
        "▁which",
        -6.976178820945462
      ],
      [
        "fef",
        -6.983909568219039
      ],
      [
        "ter",
        -6.989613062164137
      ],
      [
        "▁W",
        -6.997493115332915
      ],
      [
        "z",
        -6.99814895374492
      ],
      [
        "▁first",
        -6.999736425218927
      ],
      [
        "▁T",
        -7.0053437362086814
      ],
      [
        "ers",
        -7.008699584311206
      ],
      [
        "▁I",
        -7.012861640451527
      ],
      [
        "▁P",
        -7.019680972586986
      ],
      [
        "3",
        -7.022132760311271
      ],
      [
        "▁G",
        -7.039205805919725
      ],
      [
        "▁\"",
        -7.044998565832703
      ],
      [
        "ch",
        -7.053066503260839
      ],
      [
        "▁(19",
        -7.0564239360968575
      ],
      [
        "ation",
        -7.0573436554716
      ],
      [
        "▁have",
        -7.063987741479844
      ],
      [
        "▁D",
        -7.065781600907416
      ],
      [
        "▁c",
        -7.071057073215471
      ],
      [
        "E9E9E9",
        -7.0857070687713986
      ],
      [
        "ia",
        -7.087406701530364
      ],
      [
        "ion",
        -7.090976638135556
      ],
      [
        "man",
        -7.0981616966021495
      ],
      [
        "ta",
        -7.104869630233322
      ],
      [
        "4",
        -7.1237045665194
      ],
      [
        "ck",
        -7.127635700444552
      ],
      [
        "to",
        -7.133394865159399
      ],
      [
        "▁La",
        -7.154206555770632
      ],
      [
        "ke",
        -7.155378993447718
      ],
      [
        "0",
        -7.162685098198189
      ],
      [
        "▁Ma",
        -7.16313045443162
      ],
      [
        "▁New",
        -7.1657463110003
      ],
      [
        "▁who",
        -7.1666477624423415
      ],
      [
        "▁one",
        -7.169287571040723
      ],
      [
        "ian",
        -7.17409011464555
      ],
      [
        "ol",
        -7.1797011614399775
      ],
      [
        "D",
        -7.189514542964806
      ],
      [
        "▁had",
        -7.190626946602622
      ],
      [
        "ti",
        -7.205168955728723
      ],
      [
        "▁can",
        -7.212354889265505
      ],
      [
        "E",
        -7.215199630859733
      ],
      [
        "5",
        -7.21873382636463
      ],
      [
        "C",
        -7.221961121613932
      ],
      [
        "<unk>Other",
        -7.229675088481885
      ],
      [
        "ist",
        -7.235969031228921
      ],
      [
        "A",
        -7.237003154698558
      ],
      [
        "▁other",
        -7.238412773795771
      ],
      [
        "▁September",
        -7.239790552324143
      ],
      [
        "ge",
        -7.243205741716938
      ],
      [
        "ment",
        -7.24389858584496
      ],
      [
        "▁She",
        -7.246412072934044
      ],
      [
        "ve",
        -7.247456540000208
      ],
      [
        "▁births",
        -7.276644183425084
      ],
      [
        "sh",
        -7.279431415609858
      ],
      [
        "▁her",
        -7.288473629637924
      ],
      [
        ";",
        -7.294271418895155
      ],
      [
        "am",
        -7.296921556241005
      ],
      [
        "▁L",
        -7.297130120740897
      ],
      [
        "▁their",
        -7.299653043037679
      ],
      [
        "▁2000",
        -7.301536289740405
      ],
      [
        "ver",
        -7.3045049971412865
      ],
      [
        "▁movie",
        -7.317310780053262
      ],
      [
        "6<unk>|",
        -7.318564418552974
      ],
      [
        "7",
        -7.328518974182691
      ],
      [
        "▁but",
        -7.337574193379297
      ],
      [
        "▁they",
        -7.338000203366581
      ],
      [
        "ha",
        -7.3388282558723965
      ],
      [
        ".<unk>The",
        -7.34135220378913
      ],
      [
        "ll",
        -7.342398602745751
      ],
      [
        "/",
        -7.343108044855695
      ],
      [
        "S",
        -7.3502885278171615
      ],
      [
        "ine",
        -7.364465839758976
      ],
      [
        "▁Re",
        -7.364812961087448
      ],
      [
        "8",
        -7.365349269990224
      ],
      [
        "▁States",
        -7.365743179090231
      ],
      [
        "ga",
        -7.366444210595272
      ],
      [
        "ni",
        -7.368086685265787
      ],
      [
        "9",
        -7.385604353956108
      ],
      [
        "▁M",
        -7.387666349189775
      ],
      [
        "▁about",
        -7.3917572336880255
      ],
      [
        "▁known",
        -7.394174434357783
      ],
      [
        "ity",
        -7.396089252592949
      ],
      [
        "co",
        -7.396996234588739
      ],
      [
        "▁this",
        -7.404969942570121
      ],
      [
        "▁2001",
        -7.405141010970604
      ],
      [
        "▁October",
        -7.408369036741826
      ],
      [
        "ho",
        -7.408767388077994
      ],
      [
        "ba",
        -7.409803073447492
      ],
      [
        "as",
        -7.411527510929114
      ],
      [
        "de",
        -7.4130048943457645
      ],
      [
        "ie",
        -7.415022766256042
      ],
      [
        "▁Le",
        -7.415109993465231
      ],
      [
        "▁De",
        -7.426395225786422
      ],
      [
        "ul",
        -7.427334064168241
      ],
      [
        "x",
        -7.432107595689043
      ],
      [
        "un",
        -7.436130956714036
      ],
      [
        "▁This",
        -7.44089546978663
      ],
      [
        "▁used",
        -7.442887894042194
      ],
      [
        "ent",
        -7.448867525078338
      ],
      [
        "id",
        -7.451728182598586
      ],
      [
        "mi",
        -7.454200664172463
      ],
      [
        "▁19",
        -7.45507410406918
      ],
      [
        "um",
        -7.45660455432987
      ],
      [
        "▁March",
        -7.460445007886765
      ],
      [
        "▁called",
        -7.4677101513122945
      ],
      [
        "▁Ba",
        -7.469739647236384
      ],
      [
        "▁part",
        -7.471942162607666
      ],
      [
        "I",
        -7.475473421622599
      ],
      [
        "▁They",
        -7.482086855533023
      ],
      [
        "P",
        -7.4829802817790405
      ],
      [
        "est",
        -7.4843379044485925
      ],
      [
        "<unk>S",
        -7.489253940027732
      ],
      [
        ").",
        -7.490283254908617
      ],
      [
        "▁5",
        -7.4921441222933804
      ],
      [
        "der",
        -7.496031639252248
      ],
      [
        "▁movies",
        -7.5004636902401955
      ],
      [
        "▁August",
        -7.507666161785027
      ],
      [
        "▁January",
        -7.510119232964062
      ],
      [
        "▁deaths",
        -7.510273993373557
      ],
      [
        "▁two",
        -7.516617004934142
      ],
      [
        "▁so",
        -7.517009388214545
      ],
      [
        "▁17",
        -7.5187327974688
      ],
      [
        "▁made",
        -7.519029946670575
      ],
      [
        "T",
        -7.519153863669681
      ],
      [
        "me",
        -7.521334658731719
      ],
      [
        "▁after",
        -7.522210153207952
      ],
      [
        "op",
        -7.523147782503992
      ],
      [
        "ci",
        -7.523918169366041
      ],
      [
        "di",
        -7.5252055827734115
      ],
      [
        "N",
        -7.525572123643737
      ],
      [
        "mo",
        -7.526400010192166
      ],
      [
        "land",
        -7.531223433156571
      ],
      [
        "▁b",
        -7.532578383520251
      ],
      [
        "▁Ra",
        -7.535629669658569
      ],
      [
        "F",
        -7.535811251885434
      ],
      [
        "va",
        -7.538417655392953
      ],
      [
        "im",
        -7.539175555492829
      ],
      [
        "'",
        -7.539709277533124
      ],
      [
        "ka",
        -7.540364425904368
      ],
      [
        "▁V",
        -7.543064675870829
      ],
      [
        "R",
        -7.547558655953367
      ],
      [
        "▁May",
        -7.5551379728259676
      ],
      [
        "M",
        -7.556388276078284
      ],
      [
        "▁R",
        -7.560740823547668
      ],
      [
        "▁many",
        -7.568655133977492
      ],
      [
        "tic",
        -7.573963169846904
      ],
      [
        "▁Ro",
        -7.574036544378826
      ],
      [
        "pe",
        -7.581448993161294
      ],
      [
        "ff",
        -7.5874583355090195
      ],
      [
        "O",
        -7.592827077825994
      ],
      [
        "ant",
        -7.600459774049508
      ],
      [
        "nd",
        -7.600937896374866
      ],
      [
        "▁con",
        -7.606391960626986
      ],
      [
        "ca",
        -7.609605954524511
      ],
      [
        "▁December",
        -7.610755918434119
      ],
      [
        "j",
        -7.612098325976419
      ],
      [
        "▁November",
        -7.619355488816344
      ],
      [
        "▁Al",
        -7.622811105478174
      ],
      [
        "▁4",
        -7.625080215601729
      ],
      [
        "bo",
        -7.625370748886883
      ],
      [
        "▁Sa",
        -7.625496605349868
      ],
      [
        "▁born",
        -7.627705651050178
      ],
      [
        "hi",
        -7.629791479237662
      ],
      [
        "ary",
        -7.630057315527374
      ],
      [
        "ish",
        -7.6332368548869525
      ],
      [
        "go",
        -7.634409650781798
      ],
      [
        "ut",
        -7.634981183695382
      ],
      [
        "▁H",
        -7.636425943215778
      ],
      [
        "ot",
        -7.637145467340865
      ],
      [
        "no",
        -7.637329114169324
      ],
      [
        "▁city",
        -7.638305666816137
      ],
      [
        "▁3",
        -7.638623561896102
      ],
      [
        "▁Bo",
        -7.639072610813573
      ],
      [
        "▁television",
        -7.6393015828115445
      ],
      [
        "vi",
        -7.6416038054720765
      ],
      [
        "▁(b.",
        -7.641964221928182
      ],
      [
        "ton",
        -7.64624954088349
      ],
      [
        "▁been",
        -7.652522211791677
      ],
      [
        "(born",
        -7.653289876938707
      ],
      [
        "▁she",
        -7.660385753788221
      ],
      [
        "ard",
        -7.6605969265797995
      ],
      [
        "▁its",
        -7.660812965248423
      ],
      [
        "son",
        -7.664270142666689
      ],
      [
        "<unk>References",
        -7.667467168694511
      ],
      [
        "▁died",
        -7.670949654851226
      ],
      [
        "age",
        -7.67242243596475
      ],
      [
        "▁Me",
        -7.673900153412658
      ],
      [
        "▁Ca",
        -7.674192123543367
      ],
      [
        "▁7",
        -7.676806674404363
      ],
      [
        "▁all",
        -7.6784548438140074
      ],
      [
        "▁into",
        -7.679141990672047
      ],
      [
        "▁April",
        -7.685343994175202
      ],
      [
        "▁more",
        -7.692676289503378
      ],
      [
        "V",
        -7.696232122793679
      ],
      [
        "min",
        -7.699045373302738
      ],
      [
        "▁February",
        -7.701170082861376
      ],
      [
        "▁Mo",
        -7.703023722241404
      ],
      [
        "▁when",
        -7.705622150962396
      ],
      [
        "L",
        -7.705704949755074
      ],
      [
        "ive",
        -7.707034474646536
      ],
      [
        "▁websites<unk>",
        -7.713825892787531
      ],
      [
        "▁name",
        -7.715468367175118
      ],
      [
        "▁most",
        -7.716243991538924
      ],
      [
        "<unk>American",
        -7.716285883470286
      ],
      [
        "▁up",
        -7.733297506087174
      ],
      [
        "po",
        -7.733881514946802
      ],
      [
        "▁1",
        -7.738280099890833
      ],
      [
        "▁time",
        -7.742493581325867
      ],
      [
        "gu",
        -7.744964820477259
      ],
      [
        "tt",
        -7.746406049452586
      ],
      [
        "ty",
        -7.749048106173724
      ],
      [
        "▁2",
        -7.7499547915649885
      ],
      [
        "▁websites",
        -7.752335126389601
      ],
      [
        "▁15",
        -7.752635330007106
      ],
      [
        "20",
        -7.753668309721441
      ],
      [
        "▁do",
        -7.754902821599735
      ],
      [
        "▁Li",
        -7.756290426553171
      ],
      [
        "▁10",
        -7.759687329964299
      ],
      [
        "▁Pa",
        -7.760044105577849
      ],
      [
        "s<unk>",
        -7.765074373107312
      ],
      [
        "▁there",
        -7.769266615614788
      ],
      [
        "▁16",
        -7.772281036507824
      ],
      [
        "wa",
        -7.7782883120875095
      ],
      [
        "▁Co",
        -7.77972190673526
      ],
      [
        "<unk>The",
        -7.780746053734935
      ],
      [
        "▁County",
        -7.780983120949392
      ],
      [
        "▁War",
        -7.782024007306893
      ],
      [
        "be",
        -7.7824024426455445
      ],
      [
        "ster",
        -7.784914744487047
      ],
      [
        "ight",
        -7.788500558488291
      ],
      [
        "▁over",
        -7.788545808483807
      ],
      [
        "▁1999",
        -7.789392945770928
      ],
      [
        "▁became",
        -7.793317828163831
      ],
      [
        "▁Mar",
        -7.793888346079111
      ],
      [
        "▁To",
        -7.798632669085187
      ],
      [
        "B",
        -7.801392006701315
      ],
      [
        "ru",
        -7.8038836955733935
      ],
      [
        "our",
        -7.806672221212363
      ],
      [
        "▁Be",
        -7.808287274430571
      ],
      [
        "▁World",
        -7.812578987782599
      ],
      [
        "tor",
        -7.813136054535386
      ],
      [
        "do",
        -7.813350037939232
      ],
      [
        "ang",
        -7.815047001791289
      ],
      [
        "om",
        -7.815136561371499
      ],
      [
        "▁Ha",
        -7.815866972605267
      ],
      [
        "v",
        -7.820021757118528
      ],
      [
        "ate",
        -7.82377072101359
      ],
      [
        "▁Na",
        -7.825928872174263
      ],
      [
        "▁An",
        -7.831354799420216
      ],
      [
        "<unk>Living",
        -7.832940592751925
      ],
      [
        "gi",
        -7.836784307350992
      ],
      [
        "▁di",
        -7.8367959150589765
      ],
      [
        "▁pro",
        -7.8422077963047805
      ],
      [
        "pa",
        -7.846006363646939
      ],
      [
        "▁8",
        -7.847490875984237
      ],
      [
        "ac",
        -7.848205758115881
      ],
      [
        "and",
        -7.852184922969299
      ],
      [
        "very",
        -7.853073239466838
      ],
      [
        "les",
        -7.853333849401395
      ],
      [
        "▁2002",
        -7.857543158597883
      ],
      [
        "ence",
        -7.858307091348722
      ],
      [
        "▁state",
        -7.862033473302695
      ],
      [
        "▁York",
        -7.864383723313891
      ],
      [
        "▁years",
        -7.865410015215691
      ],
      [
        "▁series",
        -7.867532113896479
      ],
      [
        "▁July",
        -7.868984518438689
      ],
      [
        "▁U",
        -7.870761747110816
      ],
      [
        "ance",
        -7.871490863472827
      ],
      [
        "ow",
        -7.871672187562366
      ],
      [
        "▁12",
        -7.8718643520922456
      ],
      [
        "ner",
        -7.879293955188436
      ],
      [
        "▁Ta",
        -7.880277789606408
      ],
      [
        "▁st",
        -7.881777668311919
      ],
      [
        "▁(d.",
        -7.882127065179066
      ],
      [
        "U",
        -7.882969648808816
      ],
      [
        "mon",
        -7.885414011462958
      ],
      [
        "ph",
        -7.888047132330149
      ],
      [
        "ect",
        -7.901312815553654
      ],
      [
        "▁played",
        -7.901896330364327
      ],
      [
        "lu",
        -7.90461727618897
      ],
      [
        "ok",
        -7.910668789192245
      ],
      [
        "▁than",
        -7.9119903126876014
      ],
      [
        "▁some",
        -7.915169855936075
      ],
      [
        "one",
        -7.916978371200491
      ],
      [
        "able",
        -7.918171807614057
      ],
      [
        "▁found",
        -7.919125312979546
      ],
      [
        "▁only",
        -7.9211658654900265
      ],
      [
        "▁League",
        -7.9222760646525305
      ],
      [
        ".<unk>In",
        -7.929565481175992
      ],
      [
        "au",
        -7.930601767999228
      ],
      [
        "▁like",
        -7.934396893109609
      ],
      [
        "▁age",
        -7.934438390705498
      ],
      [
        "ran",
        -7.935607750426891
      ],
      [
        "▁Mi",
        -7.938759550050694
      ],
      [
        "port",
        -7.939565559694778
      ],
      [
        "▁actors",
        -7.940371139648715
      ],
      [
        "▁co",
        -7.940652798174936
      ],
      [
        "▁out",
        -7.942155973931708
      ],
      [
        "▁11",
        -7.9428655090733145
      ],
      [
        "ak",
        -7.945750685250557
      ],
      [
        "fe",
        -7.948010383672852
      ],
      [
        "ther",
        -7.949508906833527
      ],
      [
        "▁Se",
        -7.951280115663646
      ],
      [
        "▁car",
        -7.951607266359812
      ],
      [
        "▁Ka",
        -7.951634277427022
      ],
      [
        "ki",
        -7.952360175747009
      ],
      [
        "▁use",
        -7.952365655937637
      ],
      [
        "00",
        -7.953955374799115
      ],
      [
        "ger",
        -7.95429308038895
      ],
      [
        "K",
        -7.958209059902655
      ],
      [
        "und",
        -7.9611885583359925
      ],
      [
        "ism",
        -7.964130178546931
      ],
      [
        "ial",
        -7.969763416634201
      ],
      [
        "▁14",
        -7.970310534209041
      ],
      [
        "▁British",
        -7.974983676867621
      ],
      [
        "J",
        -7.978708225351264
      ],
      [
        "▁new",
        -7.980070974854593
      ],
      [
        "ven",
        -7.980878246746533
      ],
      [
        "▁pre",
        -7.981256699816193
      ],
      [
        "▁13",
        -7.981893536027862
      ],
      [
        "▁team",
        -7.982482734239618
      ],
      [
        "▁June",
        -7.983115228946447
      ],
      [
        "▁Gu",
        -7.984499039940129
      ],
      [
        "▁9",
        -7.9884111955931605
      ],
      [
        "▁(20",
        -7.989627786445389
      ],
      [
        "▁Car",
        -7.995115819930945
      ],
      [
        "▁English",
        -7.995155998750722
      ],
      [
        "▁no",
        -7.996652675029967
      ],
      [
        "▁between",
        -8.000308903354284
      ],
      [
        "G",
        -8.008881731099876
      ],
      [
        "▁South",
        -8.009053326599641
      ],
      [
        "▁because",
        -8.009243012028573
      ],
      [
        "▁mo",
        -8.016147201084129
      ],
      [
        "ies",
        -8.01878460804061
      ],
      [
        "▁sp",
        -8.019794765446598
      ],
      [
        "mb",
        -8.021486619967279
      ],
      [
        "▁Di",
        -8.024613823733128
      ],
      [
        "gen",
        -8.026724213949137
      ],
      [
        "▁Ar",
        -8.027072821493023
      ],
      [
        "▁Vi",
        -8.028409925103778
      ],
      [
        "all",
        -8.030047210165291
      ],
      [
        "▁un",
        -8.031335200064662
      ],
      [
        "▁University",
        -8.031482053690535
      ],
      [
        "▁fa",
        -8.032891717181789
      ],
      [
        "▁number",
        -8.033617019340356
      ],
      [
        "tra",
        -8.035509025292471
      ],
      [
        "tro",
        -8.036020401109312
      ],
      [
        "▁Ja",
        -8.037842488234247
      ],
      [
        "▁actor",
        -8.040437671167117
      ],
      [
        "▁Lo",
        -8.041467622887518
      ],
      [
        "▁<unk>The",
        -8.043941781096366
      ],
      [
        "▁w",
        -8.046008163042982
      ],
      [
        "▁City",
        -8.046919201943682
      ],
      [
        "10",
        -8.047090187571325
      ],
      [
        "em",
        -8.048362490515036
      ],
      [
        "per",
        -8.04993900691178
      ],
      [
        "ide",
        -8.052314825910633
      ],
      [
        "during",
        -8.053437445645528
      ],
      [
        "ron",
        -8.056118616976836
      ],
      [
        "lin",
        -8.05704596813944
      ],
      [
        "ill",
        -8.064977988763314
      ],
      [
        "▁where",
        -8.072921075524269
      ],
      [
        "▁football",
        -8.075028706733384
      ],
      [
        "ell",
        -8.07529647274766
      ],
      [
        "▁For",
        -8.075432092963567
      ],
      [
        "bu",
        -8.076520026094103
      ],
      [
        "che",
        -8.07833578318093
      ],
      [
        "▁John",
        -8.078984275391269
      ],
      [
        "bi",
        -8.082005115483769
      ],
      [
        "pp",
        -8.082866860495821
      ],
      [
        "io",
        -8.083255006099913
      ],
      [
        "▁Ho",
        -8.085659918334041
      ],
      [
        "ical",
        -8.09172668401907
      ],
      [
        "W",
        -8.091932494778735
      ],
      [
        "<unk>B",
        -8.096347199466894
      ],
      [
        "▁would",
        -8.097035684629795
      ],
      [
        "15",
        -8.099066724598675
      ],
      [
        "▁won",
        -8.100221077764436
      ],
      [
        "<unk>A",
        -8.103067174540012
      ],
      [
        "▁Si",
        -8.103796823103757
      ],
      [
        "ny",
        -8.106158450349533
      ],
      [
        "▁may",
        -8.109474701884022
      ],
      [
        "ub",
        -8.111806494601078
      ],
      [
        "▁Po",
        -8.114215299384876
      ],
      [
        "▁establishments",
        -8.11637915100353
      ],
      [
        "▁person",
        -8.116984012321229
      ],
      [
        "H",
        -8.117889117792975
      ],
      [
        "▁such",
        -8.119699147322288
      ],
      [
        "<unk>P",
        -8.121775198761233
      ],
      [
        "▁Do",
        -8.12205059738353
      ],
      [
        "▁town",
        -8.122664834063793
      ],
      [
        "▁him",
        -8.122948885195843
      ],
      [
        "▁North",
        -8.123832833048498
      ],
      [
        "ten",
        -8.133437839182534
      ],
      [
        "▁them",
        -8.136399159301106
      ],
      [
        "▁St",
        -8.13981691256629
      ],
      [
        "ous",
        -8.140834842111222
      ],
      [
        "▁music",
        -8.14088985823517
      ],
      [
        "ov",
        -8.141735746190207
      ],
      [
        "<unk>W",
        -8.14597547999119
      ],
      [
        "fi",
        -8.146301674094692
      ],
      [
        "▁su",
        -8.149901407028022
      ],
      [
        "▁ma",
        -8.150328872480484
      ],
      [
        "▁ex",
        -8.151395886230256
      ],
      [
        "ja",
        -8.151729386965183
      ],
      [
        "day",
        -8.152514324968086
      ],
      [
        "he",
        -8.157886017422687
      ],
      [
        "▁No",
        -8.15969875724041
      ],
      [
        "<unk>C",
        -8.162902612126947
      ],
      [
        "▁2010",
        -8.164257349172658
      ],
      [
        "▁player",
        -8.165525500733091
      ],
      [
        "ya",
        -8.168793505448214
      ],
      [
        "until",
        -8.169476816033
      ],
      [
        "▁released",
        -8.171080534441556
      ],
      [
        "▁three",
        -8.171376829659033
      ],
      [
        "ted",
        -8.171499986026358
      ],
      [
        "16",
        -8.1721808122324
      ],
      [
        "▁Jo",
        -8.172996705409524
      ],
      [
        "▁different",
        -8.173732477631908
      ],
      [
        "12",
        -8.174539189943697
      ],
      [
        "▁J",
        -8.185322525112069
      ],
      [
        "▁Con",
        -8.186435117516934
      ],
      [
        "▁will",
        -8.189871808498767
      ],
      [
        "ley",
        -8.19154182181241
      ],
      [
        "▁German",
        -8.193882474181946
      ],
      [
        "ick",
        -8.195976036318005
      ],
      [
        "▁Th",
        -8.197505309455245
      ],
      [
        "ud",
        -8.197949542020533
      ],
      [
        "▁member",
        -8.200650625953761
      ],
      [
        "▁Award",
        -8.200934195184841
      ],
      [
        "▁players",
        -8.201423298687661
      ],
      [
        "▁long",
        -8.2022673491018
      ],
      [
        "▁work",
        -8.203285379952986
      ],
      [
        "▁National",
        -8.206335867722329
      ],
      [
        "▁region",
        -8.207463133591974
      ],
      [
        "▁com",
        -8.211894183015087
      ],
      [
        "▁second",
        -8.212293671611638
      ],
      [
        "ab",
        -8.215175643025026
      ],
      [
        "tal",
        -8.217422896886896
      ],
      [
        "os",
        -8.217605634793987
      ],
      [
        "11",
        -8.218784975353742
      ],
      [
        "▁Ri",
        -8.222117259899182
      ],
      [
        "▁year",
        -8.223374452010004
      ],
      [
        "tion",
        -8.224401188565999
      ],
      [
        "lan",
        -8.22495963922858
      ],
      [
        "▁1998",
        -8.225060392287919
      ],
      [
        "▁At",
        -8.225953674862518
      ],
      [
        "cent",
        -8.226000679579139
      ],
      [
        "▁French",
        -8.226132632394371
      ],
      [
        "OS",
        -8.227038086640201
      ],
      [
        "den",
        -8.227507786970367
      ],
      [
        "ts",
        -8.228290458971168
      ],
      [
        "ig",
        -8.229193540517075
      ],
      [
        "▁later",
        -8.23444281592153
      ],
      [
        "tu",
        -8.236447812127713
      ],
      [
        "▁2003",
        -8.240014983667267
      ],
      [
        "▁Bu",
        -8.240798166144137
      ],
      [
        "▁Ju",
        -8.24126388657192
      ],
      [
        "by",
        -8.247768933455326
      ],
      [
        "▁On",
        -8.247952423323648
      ],
      [
        "14",
        -8.249577806261323
      ],
      [
        "▁we",
        -8.250482521090376
      ],
      [
        "▁President",
        -8.250942525826702
      ],
      [
        "<unk>|-<unk>|",
        -8.252283924829461
      ],
      [
        "ex",
        -8.252662471689936
      ],
      [
        "ber",
        -8.253178538189761
      ],
      [
        "▁area",
        -8.255847390741497
      ],
      [
        "▁So",
        -8.259425071266953
      ],
      [
        "red",
        -8.260330245422091
      ],
      [
        "ction",
        -8.260550057966682
      ],
      [
        "▁go",
        -8.261101486193125
      ],
      [
        "▁singer",
        -8.265732386928669
      ],
      [
        "<unk>H",
        -8.267190268855023
      ],
      [
        "ated",
        -8.268216593218172
      ],
      [
        "13",
        -8.268497640691779
      ],
      [
        "cu",
        -8.268820019225286
      ],
      [
        "▁life",
        -8.269058523652317
      ],
      [
        "▁exp",
        -8.270624094612979
      ],
      [
        "ting",
        -8.273587349180266
      ],
      [
        "▁Da",
        -8.274123004900027
      ],
      [
        "▁make",
        -8.275868172749094
      ],
      [
        "▁France",
        -8.27637660766741
      ],
      [
        "way",
        -8.283816593176757
      ],
      [
        "▁His",
        -8.28383476374713
      ],
      [
        "hu",
        -8.284442631788686
      ],
      [
        "<unk>n",
        -8.284614928262206
      ],
      [
        "ice",
        -8.285036185567954
      ],
      [
        "▁Man",
        -8.285549122919589
      ],
      [
        "ham",
        -8.285691154301482
      ],
      [
        ".<unk>S",
        -8.2857874765877
      ],
      [
        "▁album",
        -8.286580732211446
      ],
      [
        "▁politician",
        -8.288709268467901
      ],
      [
        "▁national",
        -8.290819033225441
      ],
      [
        "▁under",
        -8.29249086321715
      ],
      [
        "▁game",
        -8.29490547791514
      ],
      [
        "ag",
        -8.298498712490712
      ],
      [
        "mp",
        -8.298757924839236
      ],
      [
        "watch",
        -8.298999459988595
      ],
      [
        "vo",
        -8.29981950836826
      ],
      [
        "▁Su",
        -8.300253562091518
      ],
      [
        "▁same",
        -8.301822960269007
      ],
      [
        "▁place",
        -8.302005262485382
      ],
      [
        "▁Ne",
        -8.302140542632014
      ],
      [
        "ap",
        -8.302862552280148
      ],
      [
        ".<unk>A",
        -8.305634171690818
      ],
      [
        "18",
        -8.306728537829326
      ],
      [
        "ward",
        -8.307753410587765
      ],
      [
        "▁small",
        -8.307867679573315
      ],
      [
        "▁set",
        -8.308337749497818
      ],
      [
        "ally",
        -8.308454315905635
      ],
      [
        "▁Space",
        -8.308894839193758
      ],
      [
        "ach",
        -8.31217202374207
      ],
      [
        "<unk>G",
        -8.312545239482041
      ],
      [
        "ign",
        -8.316448969306705
      ],
      [
        "▁group",
        -8.317613792517733
      ],
      [
        "▁world",
        -8.320687264874811
      ],
      [
        "row",
        -8.322609789846773
      ],
      [
        "▁form",
        -8.32261953058347
      ],
      [
        "ft",
        -8.329325017857846
      ],
      [
        "▁show",
        -8.33016080965395
      ],
      [
        "pt",
        -8.332406656348665
      ],
      [
        "▁department",
        -8.33240768105758
      ],
      [
        "▁Go",
        -8.335254160701815
      ],
      [
        "▁2004",
        -8.337179549258675
      ],
      [
        "up",
        -8.33776630564961
      ],
      [
        "▁former",
        -8.341359457604865
      ],
      [
        "▁Japan",
        -8.343275917184767
      ],
      [
        "shi",
        -8.34654378442507
      ],
      [
        "har",
        -8.34947671740654
      ],
      [
        "▁Ga",
        -8.353559870667587
      ],
      [
        "▁San",
        -8.353977978956282
      ],
      [
        "▁season",
        -8.354689575054532
      ],
      [
        "▁end",
        -8.355182078298375
      ],
      [
        "▁writer",
        -8.35545036464336
      ],
      [
        "mer",
        -8.35721828046809
      ],
      [
        "cre",
        -8.357269686274632
      ],
      [
        "17",
        -8.357510934685733
      ],
      [
        "ite",
        -8.358129526074881
      ],
      [
        "80",
        -8.358190205257918
      ],
      [
        "mm",
        -8.359513376910549
      ],
      [
        "▁band",
        -8.362660935049707
      ],
      [
        "low",
        -8.365536657668178
      ],
      [
        "▁California",
        -8.367037126732331
      ],
      [
        "ep",
        -8.367678202979128
      ],
      [
        "▁being",
        -8.37148782496555
      ],
      [
        "mar",
        -8.371677479061464
      ],
      [
        "ring",
        -8.372269801860542
      ],
      [
        "act",
        -8.372845555367437
      ],
      [
        "21",
        -8.374935225027388
      ],
      [
        "ler",
        -8.377389826460812
      ],
      [
        "▁There",
        -8.377607402692114
      ],
      [
        "<unk>People",
        -8.378207390242206
      ],
      [
        "ving",
        -8.378629915188563
      ],
      [
        "▁Pi",
        -8.380291641863229
      ],
      [
        "ou",
        -8.380980776093255
      ],
      [
        "▁2005",
        -8.381932247343602
      ],
      [
        "Palomar",
        -8.382234673138784
      ],
      [
        "ator",
        -8.38277228291739
      ],
      [
        "\".",
        -8.38435634513294
      ],
      [
        "▁1,",
        -8.38502783258865
      ],
      [
        "sta",
        -8.38625487226561
      ],
      [
        "<unk>E",
        -8.386454068838356
      ],
      [
        "ath",
        -8.386733511095517
      ],
      [
        "▁Cha",
        -8.387322404825317
      ],
      [
        "rt",
        -8.389627908468121
      ],
      [
        "▁Har",
        -8.393100627678791
      ],
      [
        "the",
        -8.396276798819947
      ],
      [
        "&",
        -8.39799210186213
      ],
      [
        "ev",
        -8.399329076059795
      ],
      [
        "za",
        -8.400884771229117
      ],
      [
        "van",
        -8.404061317135387
      ],
      [
        "▁As",
        -8.404340200077753
      ],
      [
        "▁main",
        -8.404721253833145
      ],
      [
        "ier",
        -8.405624546281599
      ],
      [
        "cha",
        -8.405929626746477
      ],
      [
        "<unk>18",
        -8.408904025179368
      ],
      [
        "=",
        -8.409045115853022
      ],
      [
        "▁often",
        -8.409699704808524
      ],
      [
        "90",
        -8.41095109700623
      ],
      [
        "▁dis",
        -8.41239463230696
      ],
      [
        "▁Kitt",
        -8.413835122226692
      ],
      [
        "er,",
        -8.414033160498015
      ],
      [
        "we",
        -8.41625081570917
      ],
      [
        "e,",
        -8.416307242625585
      ],
      [
        "▁Hu",
        -8.41784284335731
      ],
      [
        "nk",
        -8.417908896179956
      ],
      [
        "▁Party",
        -8.419205711089907
      ],
      [
        "▁Bar",
        -8.419371472936433
      ],
      [
        "40",
        -8.4199592445169
      ],
      [
        "▁did",
        -8.420366695611094
      ],
      [
        "▁war",
        -8.421993721445917
      ],
      [
        "▁water",
        -8.422061987974674
      ],
      [
        "▁Peak",
        -8.422151808244465
      ],
      [
        "end",
        -8.423224655155094
      ],
      [
        "▁district",
        -8.423611427492762
      ],
      [
        "▁system",
        -8.425978483669905
      ],
      [
        "▁large",
        -8.426065007305018
      ],
      [
        "▁through",
        -8.42627687933947
      ],
      [
        "▁v",
        -8.428334562604528
      ],
      [
        "▁2017",
        -8.428480846474326
      ],
      [
        "ng",
        -8.429314077319246
      ],
      [
        "qu",
        -8.429516844395726
      ],
      [
        "▁before",
        -8.430127969570957
      ],
      [
        "▁named",
        -8.433240402648075
      ],
      [
        "▁2019",
        -8.436043314388124
      ],
      [
        "tain",
        -8.438120788395576
      ],
      [
        "▁family",
        -8.438209396188682
      ],
      [
        "▁started",
        -8.438486832801797
      ],
      [
        "▁Z",
        -8.440892368755271
      ],
      [
        "▁Ch",
        -8.442172393725969
      ],
      [
        "▁actress",
        -8.442587986099937
      ],
      [
        "▁high",
        -8.443097511379802
      ],
      [
        "<unk>T",
        -8.445420830848693
      ],
      [
        "men",
        -8.445865443902735
      ],
      [
        "▁mi",
        -8.446180241447632
      ],
      [
        "chi",
        -8.449033882329843
      ],
      [
        "val",
        -8.449694641372357
      ],
      [
        "▁England",
        -8.451399501440758
      ],
      [
        "▁career",
        -8.45356455766392
      ],
      [
        "▁Germany",
        -8.453840460709056
      ],
      [
        "wi",
        -8.45473392487715
      ],
      [
        "▁since",
        -8.455161709798357
      ],
      [
        "art",
        -8.455293592625608
      ],
      [
        "▁Per",
        -8.456461263187725
      ],
      [
        "▁own",
        -8.45897586737868
      ],
      [
        "ens",
        -8.46010925615532
      ],
      [
        "▁We",
        -8.460663940789443
      ],
      [
        "▁U.S.",
        -8.461479023316393
      ],
      [
        "EAT",
        -8.46186464728171
      ],
      [
        "▁Pro",
        -8.46194917875873
      ],
      [
        "my",
        -8.462888695151722
      ],
      [
        "▁government",
        -8.463187035863282
      ],
      [
        "ning",
        -8.463217087537137
      ],
      [
        "▁said",
        -8.46389854372067
      ],
      [
        "ko",
        -8.465406994899261
      ],
      [
        "▁population",
        -8.468056132555581
      ],
      [
        "<unk>I",
        -8.468485809483184
      ],
      [
        "▁River",
        -8.469344458062388
      ],
      [
        "%",
        -8.469578245438992
      ],
      [
        "▁Pe",
        -8.473253378909497
      ],
      [
        "fer",
        -8.47380705468953
      ],
      [
        "▁against",
        -8.47387168486726
      ],
      [
        "31",
        -8.477756660307763
      ],
      [
        "▁well",
        -8.478435587265082
      ],
      [
        "▁2014",
        -8.48839048789456
      ],
      [
        "▁song",
        -8.488394870406617
      ],
      [
        "tur",
        -8.488617412583059
      ],
      [
        "▁King",
        -8.4886686966187
      ],
      [
        "▁Ni",
        -8.488873139904394
      ],
      [
        "60",
        -8.488943970567414
      ],
      [
        "▁Te",
        -8.489529502940515
      ],
      [
        "<unk>F",
        -8.492503939394538
      ],
      [
        "▁based",
        -8.49481235301464
      ],
      [
        "ors",
        -8.495118074157958
      ],
      [
        "▁2018",
        -8.495124019400478
      ],
      [
        "s<unk>American",
        -8.49585395659473
      ],
      [
        "han",
        -8.497688899226798
      ],
      [
        "30",
        -8.498772002693114
      ],
      [
        ":<unk>",
        -8.500249954716518
      ],
      [
        "ling",
        -8.501106755420011
      ],
      [
        "ban",
        -8.501674624513495
      ],
      [
        "bor",
        -8.501862157638428
      ],
      [
        "ay",
        -8.504099089103493
      ],
      [
        "▁London",
        -8.50446209248856
      ],
      [
        "que",
        -8.5076104351983
      ],
      [
        "<unk>K",
        -8.510702353463438
      ],
      [
        "ure",
        -8.51207613602855
      ],
      [
        "▁back",
        -8.513018265477484
      ],
      [
        "▁man",
        -8.514445117518994
      ],
      [
        "▁me",
        -8.518718857874987
      ],
      [
        "▁All",
        -8.519251448854174
      ],
      [
        ".<unk>Other",
        -8.520156608553101
      ],
      [
        "▁II",
        -8.520702256157206
      ],
      [
        "▁games",
        -8.521276671618793
      ],
      [
        "res",
        -8.521823993378877
      ],
      [
        "▁best",
        -8.522105671340928
      ],
      [
        "▁Minister",
        -8.522573836541707
      ],
      [
        "▁2006",
        -8.523057580167556
      ],
      [
        "ju",
        -8.52317768085564
      ],
      [
        "ah",
        -8.530377750067048
      ],
      [
        "▁website",
        -8.530821596458587
      ],
      [
        "70",
        -8.53393253030104
      ],
      [
        "cy",
        -8.534824965245381
      ],
      [
        "89",
        -8.536661812827864
      ],
      [
        "pi",
        -8.5369414193978
      ],
      [
        "88",
        -8.544067810365522
      ],
      [
        "oc",
        -8.54528556593993
      ],
      [
        "▁Her",
        -8.5465280082824
      ],
      [
        "▁la",
        -8.54816405002239
      ],
      [
        "▁century",
        -8.54888373282839
      ],
      [
        "▁get",
        -8.551616194950169
      ],
      [
        "▁any",
        -8.55309837997258
      ],
      [
        "▁directed",
        -8.553222115291252
      ],
      [
        "gan",
        -8.553516162889698
      ],
      [
        "hy",
        -8.554303013231966
      ],
      [
        "95",
        -8.557650748333195
      ],
      [
        "tter",
        -8.560227995868937
      ],
      [
        "▁tri",
        -8.560816845259108
      ],
      [
        "93",
        -8.561351010092238
      ],
      [
        "sen",
        -8.563023659780711
      ],
      [
        "87",
        -8.563875922158912
      ],
      [
        "<unk>Deaths",
        -8.566077745477905
      ],
      [
        "ire",
        -8.566607858648947
      ],
      [
        "▁around",
        -8.567565287372654
      ],
      [
        "ists",
        -8.568533900801958
      ],
      [
        "Y",
        -8.569996429605093
      ],
      [
        "▁near",
        -8.570176445796006
      ],
      [
        "▁country",
        -8.57148594579997
      ],
      [
        "▁live",
        -8.57183507425631
      ],
      [
        "85",
        -8.572384007742802
      ],
      [
        "▁Cup",
        -8.572550240663382
      ],
      [
        "▁America",
        -8.57296079422546
      ],
      [
        "▁Fa",
        -8.573291318193473
      ],
      [
        "\",",
        -8.57364148324698
      ],
      [
        "qui",
        -8.573842693040795
      ],
      [
        "▁2016",
        -8.574982743324826
      ],
      [
        "▁both",
        -8.575012934966693
      ],
      [
        "<unk>Movies",
        -8.57554792455061
      ],
      [
        "▁list",
        -8.575720819928584
      ],
      [
        "▁death",
        -8.576259444897554
      ],
      [
        "ey",
        -8.578119366357607
      ],
      [
        "▁Ru",
        -8.580257449186645
      ],
      [
        "▁home",
        -8.581355000347806
      ],
      [
        "ney",
        -8.582774936679177
      ],
      [
        "▁four",
        -8.584051267695513
      ],
      [
        "▁could",
        -8.584572711516891
      ],
      [
        "cho",
        -8.586565606921104
      ],
      [
        "ong",
        -8.588266305559921
      ],
      [
        "▁school",
        -8.5895589342048
      ],
      [
        "line",
        -8.591261586607603
      ],
      [
        "vent",
        -8.59226477982424
      ],
      [
        "▁including",
        -8.592496665481056
      ],
      [
        "▁Anderson",
        -8.594512767000548
      ],
      [
        "▁2015",
        -8.59502167852168
      ],
      [
        "▁Lu",
        -8.59677003526205
      ],
      [
        "▁X",
        -8.59990555816371
      ],
      [
        "ions",
        -8.603375422863559
      ],
      [
        "▁gra",
        -8.603450413628003
      ],
      [
        "▁Indian",
        -8.605328376240175
      ],
      [
        "▁2007",
        -8.605433186792109
      ],
      [
        "▁El",
        -8.60690276924582
      ],
      [
        "83",
        -8.60859824542965
      ],
      [
        "form",
        -8.610922978153031
      ],
      [
        "▁Japanese",
        -8.611279057561235
      ],
      [
        "ult",
        -8.61326542217463
      ],
      [
        "▁2020",
        -8.614800031491301
      ],
      [
        "75",
        -8.615406707919703
      ],
      [
        "▁Col",
        -8.61585117994575
      ],
      [
        "50",
        -8.617661485287963
      ],
      [
        "ship",
        -8.617932152554031
      ],
      [
        "▁2,",
        -8.618050058523082
      ],
      [
        "▁Roman",
        -8.618285056967334
      ],
      [
        "colspan=\"2\"|-||",
        -8.621483128524524
      ],
      [
        "72",
        -8.622620755463474
      ],
      [
        "▁2011",
        -8.625088150562418
      ],
      [
        "▁usually",
        -8.626149633834792
      ],
      [
        "▁each",
        -8.627335673586915
      ],
      [
        "01",
        -8.630879593321591
      ],
      [
        "84",
        -8.631644877066051
      ],
      [
        "91",
        -8.63535494877912
      ],
      [
        "▁Ti",
        -8.636406501869624
      ],
      [
        "000",
        -8.636525514789021
      ],
      [
        "97",
        -8.63760838190206
      ],
      [
        "86",
        -8.638566815538011
      ],
      [
        "98",
        -8.639851529319388
      ],
      [
        "▁Du",
        -8.64021583315682
      ],
      [
        "▁way",
        -8.640607777400842
      ],
      [
        "▁Kingdom",
        -8.642678674986898
      ],
      [
        "▁West",
        -8.64392080105094
      ],
      [
        "ern",
        -8.645580525533784
      ],
      [
        "82",
        -8.650011701528674
      ],
      [
        "ology",
        -8.650656901176227
      ],
      [
        "▁Ko",
        -8.650819050359141
      ],
      [
        "▁India",
        -8.651406418016206
      ],
      [
        "▁Bi",
        -8.65219733248008
      ],
      [
        "35",
        -8.654010765916412
      ],
      [
        "25",
        -8.654085372946218
      ],
      [
        "32",
        -8.654533380246868
      ],
      [
        "▁per",
        -8.65491750061647
      ],
      [
        "▁bi",
        -8.657855155271402
      ],
      [
        "ast",
        -8.657869245651192
      ],
      [
        "81",
        -8.657888522900192
      ],
      [
        "45",
        -8.662942334575163
      ],
      [
        "▁land",
        -8.663112348025697
      ],
      [
        "▁2021",
        -8.663601805040212
      ],
      [
        "ip",
        -8.665816372446422
      ],
      [
        "view",
        -8.665937840213093
      ],
      [
        "<unk>Ma",
        -8.668566798503523
      ],
      [
        "iv",
        -8.668893146270182
      ],
      [
        "▁last",
        -8.669839016827028
      ],
      [
        "old",
        -8.670014102825355
      ],
      [
        "▁help",
        -8.671873237017559
      ],
      [
        "▁county",
        -8.673118957725674
      ],
      [
        "tle",
        -8.673284867590581
      ],
      [
        "▁Europe",
        -8.673856262069577
      ],
      [
        "ual",
        -8.674906457712394
      ],
      [
        "r<unk>",
        -8.67503323033916
      ],
      [
        "79",
        -8.675659199630221
      ],
      [
        "▁role",
        -8.675960443728092
      ],
      [
        "▁Italian",
        -8.676345343884183
      ],
      [
        "99",
        -8.678201963223003
      ],
      [
        "33",
        -8.678931029574626
      ],
      [
        "▁After",
        -8.679556808892658
      ],
      [
        "▁2013",
        -8.680418926014815
      ],
      [
        "▁Mu",
        -8.680731410394737
      ],
      [
        "air",
        -8.6811088079863
      ],
      [
        "▁William",
        -8.684071464038414
      ],
      [
        "▁g",
        -8.685687657569998
      ],
      [
        "▁several",
        -8.686670497721682
      ],
      [
        "▁air",
        -8.687133727915178
      ],
      [
        "tin",
        -8.68753087712483
      ],
      [
        "77",
        -8.688386177162906
      ],
      [
        "▁2008",
        -8.689119129579007
      ],
      [
        "▁lived",
        -8.68936155181437
      ],
      [
        "▁type",
        -8.689728967819297
      ],
      [
        "▁attack",
        -8.6897685384435
      ],
      [
        "▁record",
        -8.690910756057114
      ],
      [
        "arch",
        -8.692848407047242
      ],
      [
        "ib",
        -8.694489812686617
      ],
      [
        "gg",
        -8.696724969858755
      ],
      [
        "con",
        -8.697183842115413
      ],
      [
        "▁began",
        -8.697194716868491
      ],
      [
        "34",
        -8.697264126152868
      ],
      [
        "gar",
        -8.698783676922561
      ],
      [
        "▁Mesa",
        -8.699055032256812
      ],
      [
        "ana",
        -8.699866402255966
      ],
      [
        "65",
        -8.70122315371376
      ],
      [
        "ore",
        -8.701327977245246
      ],
      [
        "▁director",
        -8.702169573346703
      ],
      [
        "lor",
        -8.702636992937467
      ],
      [
        "▁old",
        -8.703444431630945
      ],
      [
        "▁comp",
        -8.703994799150035
      ],
      [
        "▁play",
        -8.70452122954674
      ],
      [
        "▁Bra",
        -8.704564006687983
      ],
      [
        "74",
        -8.705272231407768
      ],
      [
        "<unk>In",
        -8.706039527427885
      ],
      [
        "▁single",
        -8.70663404983046
      ],
      [
        "ung",
        -8.708782541992235
      ],
      [
        "▁House",
        -8.709214953470694
      ],
      [
        "▁take",
        -8.709308304349507
      ],
      [
        "▁States.",
        -8.71059946549563
      ],
      [
        "▁24,",
        -8.710609282736053
      ],
      [
        "64",
        -8.714668613286934
      ],
      [
        "bit",
        -8.715512625654721
      ],
      [
        "▁then",
        -8.715661609080145
      ],
      [
        "lic",
        -8.716189066470271
      ],
      [
        "23",
        -8.717344701205146
      ],
      [
        "▁while",
        -8.717590415607795
      ],
      [
        "▁north",
        -8.717624638619577
      ],
      [
        "92",
        -8.71811079575186
      ],
      [
        "▁Australia",
        -8.718114150948715
      ],
      [
        "cc",
        -8.718939323322564
      ],
      [
        "▁club",
        -8.719151139097994
      ],
      [
        "▁Mor",
        -8.719681090302705
      ],
      [
        "▁20",
        -8.720264457075034
      ],
      [
        "▁language",
        -8.720770436786442
      ],
      [
        "▁2012",
        -8.721732895574602
      ],
      [
        "▁5,",
        -8.72174818037183
      ],
      [
        "78",
        -8.721867118072286
      ],
      [
        "▁see",
        -8.723365311189259
      ],
      [
        "ness",
        -8.72340731917411
      ],
      [
        "▁seat",
        -8.725602445579064
      ],
      [
        "y,",
        -8.727673607230882
      ],
      [
        "▁State",
        -8.728417925880851
      ],
      [
        "du",
        -8.72895635203435
      ],
      [
        "73",
        -8.728987140295823
      ],
      [
        "bb",
        -8.729129751028742
      ],
      [
        "tan",
        -8.730101478631248
      ],
      [
        "▁created",
        -8.73091848148004
      ],
      [
        "▁7,",
        -8.73106029723736
      ],
      [
        "▁important",
        -8.7311018857459
      ],
      [
        "▁10,",
        -8.731872301511673
      ],
      [
        "37",
        -8.732803956500838
      ],
      [
        "▁term",
        -8.735287710065505
      ],
      [
        "▁these",
        -8.735339651522414
      ],
      [
        "▁video",
        -8.737852445433457
      ],
      [
        "▁Some",
        -8.738147305038503
      ],
      [
        "ku",
        -8.738388974801113
      ],
      [
        "▁official",
        -8.739715411273984
      ],
      [
        "cul",
        -8.741133779188104
      ],
      [
        "▁rock",
        -8.742163300411187
      ],
      [
        "ium",
        -8.742868219854659
      ],
      [
        ".<unk>B",
        -8.744245729140136
      ],
      [
        "▁million",
        -8.744885966113277
      ],
      [
        "94",
        -8.744992974175041
      ],
      [
        "went",
        -8.74546481581375
      ],
      [
        "ating",
        -8.746711716467248
      ],
      [
        "ration",
        -8.749036777519205
      ],
      [
        "ral",
        -8.750786444750853
      ],
      [
        "24",
        -8.751289629287296
      ],
      [
        ".<unk>T",
        -8.75214511050693
      ],
      [
        "lay",
        -8.752558303402509
      ],
      [
        "tre",
        -8.753623787627753
      ],
      [
        "ze",
        -8.753733451439249
      ],
      [
        "ress",
        -8.754173639333318
      ],
      [
        "cl",
        -8.755609853373526
      ],
      [
        "king",
        -8.755858840518975
      ],
      [
        "▁Je",
        -8.75848232942526
      ],
      [
        "▁2009",
        -8.758516843156677
      ],
      [
        "▁Or",
        -8.758686693468682
      ],
      [
        "tri",
        -8.758908263215575
      ],
      [
        "ONE",
        -8.759214787752114
      ],
      [
        "27",
        -8.761152151620145
      ],
      [
        "▁municipality",
        -8.763324705954249
      ],
      [
        "rit",
        -8.764723135708593
      ],
      [
        "▁head",
        -8.766049425722496
      ],
      [
        "range",
        -8.76678152411584
      ],
      [
        "71",
        -8.766957620071324
      ],
      [
        "ix",
        -8.76855071547587
      ],
      [
        "▁4,",
        -8.770077504339552
      ],
      [
        "▁include",
        -8.771193838633357
      ],
      [
        "▁songs",
        -8.772687860335282
      ],
      [
        "▁if",
        -8.773830928429064
      ],
      [
        "22",
        -8.773837813032545
      ],
      [
        "ji",
        -8.774415685237681
      ],
      [
        "▁popular",
        -8.775827737021892
      ],
      [
        "▁Sha",
        -8.777826808854106
      ],
      [
        "▁capital",
        -8.77846671943289
      ],
      [
        "▁(M",
        -8.778706001029903
      ],
      [
        "68",
        -8.78096282230123
      ],
      [
        "berg",
        -8.781267432117737
      ],
      [
        "67",
        -8.781377567192527
      ],
      [
        "ized",
        -8.781419367044649
      ],
      [
        "vin",
        -8.783098829616183
      ],
      [
        "side",
        -8.783748057378297
      ],
      [
        "42",
        -8.785053641135612
      ],
      [
        "▁film",
        -8.786365473856467
      ],
      [
        "ries",
        -8.787356620940544
      ],
      [
        "<unk>Communes",
        -8.78740931926625
      ],
      [
        "▁drama",
        -8.788111377642455
      ],
      [
        "▁Nor",
        -8.788489986131905
      ],
      [
        "76",
        -8.788677403269944
      ],
      [
        "28",
        -8.789126421979162
      ],
      [
        "▁Sch",
        -8.790538113827974
      ],
      [
        "yn",
        -8.794014373595205
      ],
      [
        "ren",
        -8.796212796499136
      ],
      [
        "29",
        -8.796667931077653
      ],
      [
        "▁children",
        -8.797009395931026
      ],
      [
        "▁short",
        -8.799468735929674
      ],
      [
        "pen",
        -8.799909501813515
      ],
      [
        "▁()",
        -8.79998909103655
      ],
      [
        ".<unk>C",
        -8.800690795108357
      ],
      [
        "rate",
        -8.801301891271885
      ],
      [
        "cell",
        -8.801339198512308
      ],
      [
        "!",
        -8.801376451580692
      ],
      [
        "69",
        -8.801803392849477
      ],
      [
        "▁births<unk>201",
        -8.802525543059383
      ],
      [
        "48",
        -8.80286609131526
      ],
      [
        "▁Ge",
        -8.80325898215732
      ],
      [
        "▁law",
        -8.804707165631365
      ],
      [
        "if",
        -8.805165516625692
      ],
      [
        "ari",
        -8.80665533402947
      ],
      [
        "▁early",
        -8.807414440716206
      ],
      [
        "▁9,",
        -8.807622119377296
      ],
      [
        "▁book",
        -8.8086055035319
      ],
      [
        "▁3,",
        -8.808746931206693
      ],
      [
        "▁design",
        -8.809796394977091
      ],
      [
        "▁Y",
        -8.81022998895898
      ],
      [
        "▁Ke",
        -8.811290448972903
      ],
      [
        "▁These",
        -8.811805377421873
      ],
      [
        "ches",
        -8.811976030140519
      ],
      [
        "47",
        -8.812290572921349
      ],
      [
        "▁Ki",
        -8.813121185405306
      ],
      [
        "ations",
        -8.813988551427313
      ],
      [
        "nda",
        -8.814511038784207
      ],
      [
        "pos",
        -8.816087604424238
      ],
      [
        "▁now",
        -8.81620194190102
      ],
      [
        "▁musician",
        -8.817425303655218
      ],
      [
        "▁Cor",
        -8.817606688543439
      ],
      [
        "▁One",
        -8.819062606410517
      ],
      [
        "mber",
        -8.819526911874528
      ],
      [
        "▁Gra",
        -8.820109037045317
      ],
      [
        "▁sub",
        -8.820591408299403
      ],
      [
        "ris",
        -8.820750497384283
      ],
      [
        "lar",
        -8.820939670175012
      ],
      [
        "lf",
        -8.821297923545318
      ],
      [
        "▁countries",
        -8.821935369906626
      ],
      [
        "▁cancer",
        -8.8220287022568
      ],
      [
        "▁Hi",
        -8.824573382812149
      ],
      [
        "▁human",
        -8.82542289094321
      ],
      [
        "ich",
        -8.826167729787034
      ],
      [
        "▁species",
        -8.827002849328222
      ],
      [
        "let",
        -8.827176791651521
      ],
      [
        "▁day",
        -8.827295702963196
      ],
      [
        "ities",
        -8.827382331443065
      ],
      [
        "s:",
        -8.828582500602048
      ],
      [
        "63",
        -8.829568098201307
      ],
      [
        "96",
        -8.830093458191664
      ],
      [
        "bre",
        -8.830823186276284
      ],
      [
        "▁Championship",
        -8.831825736492155
      ],
      [
        "▁16,",
        -8.832749067018428
      ],
      [
        "▁Island",
        -8.834658036014089
      ],
      [
        "▁came",
        -8.834835550899946
      ],
      [
        "ville",
        -8.835046324657732
      ],
      [
        "vis",
        -8.836315776431437
      ],
      [
        "▁trans",
        -8.837165527505526
      ],
      [
        "However,",
        -8.838539310856953
      ],
      [
        "ik",
        -8.839282889523199
      ],
      [
        "41",
        -8.840700336827501
      ],
      [
        "fu",
        -8.841444842036362
      ],
      [
        "<unk>O",
        -8.842206608682936
      ],
      [
        "▁(S",
        -8.84292997607212
      ],
      [
        "▁leader",
        -8.843029085474498
      ],
      [
        "▁rule",
        -8.843085550575976
      ],
      [
        "▁you",
        -8.84424307522634
      ],
      [
        "▁Ex",
        -8.84434948083956
      ],
      [
        "▁election",
        -8.844868263377077
      ],
      [
        "▁act",
        -8.845645943291885
      ],
      [
        "43",
        -8.845700262924538
      ],
      [
        "38",
        -8.845786249088288
      ],
      [
        "nu",
        -8.846415244873436
      ],
      [
        "▁what",
        -8.846711101183086
      ],
      [
        "66",
        -8.847611922246776
      ],
      [
        "▁Gi",
        -8.847764239916746
      ],
      [
        "ica",
        -8.848265634107793
      ],
      [
        "36",
        -8.84905496750481
      ],
      [
        "▁means",
        -8.850170140305542
      ],
      [
        "▁written",
        -8.850416679007921
      ],
      [
        "▁1997",
        -8.850468261969313
      ],
      [
        "ric",
        -8.850965617601027
      ],
      [
        "39",
        -8.85324445671618
      ],
      [
        "▁When",
        -8.856259637267124
      ],
      [
        "▁US",
        -8.857183754652509
      ],
      [
        "▁stage",
        -8.857510036240363
      ],
      [
        "55",
        -8.857628565164834
      ],
      [
        "▁France.",
        -8.858011511109257
      ],
      [
        "ile",
        -8.858101023152438
      ],
      [
        "gue",
        -8.858383439564975
      ],
      [
        "X",
        -8.858735680657922
      ],
      [
        "▁Mon",
        -8.858983182206359
      ],
      [
        "▁power",
        -8.859491159569615
      ],
      [
        "▁left",
        -8.861088301052366
      ],
      [
        "es,",
        -8.861982572869366
      ],
      [
        "44",
        -8.862098719170977
      ],
      [
        "▁every",
        -8.86315497475784
      ],
      [
        "▁25",
        -8.863527759015064
      ],
      [
        "▁Am",
        -8.86401763320791
      ],
      [
        ".<unk>P",
        -8.865238422812508
      ],
      [
        "▁En",
        -8.866324935207224
      ],
      [
        "del",
        -8.866543958903105
      ],
      [
        "26",
        -8.867217151708825
      ],
      [
        "road",
        -8.867255657598408
      ],
      [
        "wer",
        -8.867942773869082
      ],
      [
        "ture",
        -8.868029681748926
      ],
      [
        "lli",
        -8.868664965196164
      ],
      [
        "▁line",
        -8.869191068687545
      ],
      [
        "62",
        -8.869365654174228
      ],
      [
        "▁general",
        -8.870096053659466
      ],
      [
        "lect",
        -8.870403708514248
      ],
      [
        "▁program",
        -8.870567515411526
      ],
      [
        "▁much",
        -8.870611536056566
      ],
      [
        "49",
        -8.87226654852055
      ],
      [
        "▁province",
        -8.872302087144488
      ],
      [
        "▁married",
        -8.874203055616805
      ],
      [
        "▁history",
        -8.875084426499646
      ],
      [
        "pu",
        -8.875485108459257
      ],
      [
        "iz",
        -8.876487374061679
      ],
      [
        "ute",
        -8.877334375580565
      ],
      [
        "ble",
        -8.878275829915427
      ],
      [
        "▁famous",
        -8.880026194548405
      ],
      [
        "▁down",
        -8.881193839581053
      ],
      [
        "▁Qu",
        -8.881654976715236
      ],
      [
        "com",
        -8.881909874274744
      ],
      [
        "ker",
        -8.882343463233756
      ],
      [
        "▁groups",
        -8.882356066971482
      ],
      [
        "▁(C",
        -8.883486243617417
      ],
      [
        "bra",
        -8.88406780649607
      ],
      [
        "zo",
        -8.885497096491076
      ],
      [
        "▁station",
        -8.88593372562577
      ],
      [
        "ition",
        -8.888024846013893
      ],
      [
        "▁14,",
        -8.888285787759058
      ],
      [
        "gy",
        -8.888449934083559
      ],
      [
        "ps",
        -8.889883312861544
      ],
      [
        "▁East",
        -8.889955225103234
      ],
      [
        "ski",
        -8.890363097553525
      ],
      [
        "51",
        -8.892247938563804
      ],
      [
        "▁voice",
        -8.893342845541886
      ],
      [
        "▁Pla",
        -8.893565047210933
      ],
      [
        "qua",
        -8.894852437585197
      ],
      [
        "07",
        -8.895441844351588
      ],
      [
        "▁Republic",
        -8.895501599181285
      ],
      [
        "win",
        -8.896616875158367
      ],
      [
        "▁major",
        -8.897694569432165
      ],
      [
        "▁river",
        -8.898587575799441
      ],
      [
        "▁run",
        -8.898685873778252
      ],
      [
        "05",
        -8.898955688584968
      ],
      [
        ".<unk>Related",
        -8.89902703901561
      ],
      [
        "▁change",
        -8.89917604267379
      ],
      [
        "▁James",
        -8.900658363037003
      ],
      [
        "ident",
        -8.900725958267214
      ],
      [
        "▁20,",
        -8.901165765846782
      ],
      [
        "61",
        -8.904353880317657
      ],
      [
        "uch",
        -8.90459083956177
      ],
      [
        "vel",
        -8.906475873755426
      ],
      [
        "▁still",
        -8.907589984632043
      ],
      [
        "▁1990",
        -8.90943293028158
      ],
      [
        "lea",
        -8.909668522723353
      ],
      [
        "▁30",
        -8.909674492134666
      ],
      [
        "▁Art",
        -8.910002482970098
      ],
      [
        "burg",
        -8.910367232983656
      ],
      [
        "▁'",
        -8.911385324641111
      ],
      [
        "car",
        -8.911838228073709
      ],
      [
        "03",
        -8.913342119735198
      ],
      [
        "57",
        -8.913722642322977
      ],
      [
        "ford",
        -8.914128493562483
      ],
      [
        "08",
        -8.914436419459252
      ],
      [
        "▁support",
        -8.917266625441856
      ],
      [
        "▁building",
        -8.918951062073033
      ],
      [
        "▁artist",
        -8.919127258866304
      ],
      [
        "▁George",
        -8.919654424900614
      ],
      [
        "▁Un",
        -8.919797589406784
      ],
      [
        "rm",
        -8.920368925706915
      ],
      [
        "ob",
        -8.921132093861312
      ],
      [
        "YS",
        -8.921508296224069
      ],
      [
        "54",
        -8.921569891250824
      ],
      [
        "▁Park",
        -8.922285979641329
      ],
      [
        "▁Ad",
        -8.92337976729043
      ],
      [
        "<unk>Mo",
        -8.924569260640023
      ],
      [
        "04",
        -8.924819002952544
      ],
      [
        "ele",
        -8.925020762291645
      ],
      [
        "ple",
        -8.925421243775112
      ],
      [
        "▁footballer",
        -8.925934723885979
      ],
      [
        "▁1996",
        -8.925963658058677
      ],
      [
        "▁built",
        -8.926445695123984
      ],
      [
        "use",
        -8.92672902145489
      ],
      [
        "mit",
        -8.926804248236898
      ],
      [
        "▁Wal",
        -8.926806212862516
      ],
      [
        "▁professional",
        -8.9276489125426
      ],
      [
        "amp",
        -8.927810476561742
      ],
      [
        "▁father",
        -8.928961356752534
      ],
      [
        "▁producer",
        -8.929398772236429
      ],
      [
        "59",
        -8.929752920413847
      ],
      [
        "▁Paul",
        -8.92981598369189
      ],
      [
        "▁commune",
        -8.931855321427959
      ],
      [
        "av",
        -8.932815087330086
      ],
      [
        "kh",
        -8.933984365738402
      ],
      [
        "▁Robert",
        -8.934784147594657
      ],
      [
        "bin",
        -8.93565269234994
      ],
      [
        "ada",
        -8.935855483217233
      ],
      [
        "▁become",
        -8.936563567069964
      ],
      [
        "▁Canada",
        -8.93663434691696
      ],
      [
        "▁how",
        -8.936752513772594
      ],
      [
        "ino",
        -8.93739475530326
      ],
      [
        "▁organ",
        -8.938388012435649
      ],
      [
        "▁Bro",
        -8.939608600215776
      ],
      [
        "▁class",
        -8.940900324421017
      ],
      [
        "Q",
        -8.941106652195963
      ],
      [
        "▁And",
        -8.941672331045448
      ],
      [
        "ugh",
        -8.941854803765533
      ],
      [
        "▁sold",
        -8.943175056997148
      ],
      [
        "log",
        -8.943687116627556
      ],
      [
        "▁does",
        -8.944615769041818
      ],
      [
        "▁men",
        -8.945090970950544
      ],
      [
        "▁largest",
        -8.947725341808292
      ],
      [
        "02",
        -8.948014482277268
      ],
      [
        "09",
        -8.9482816042735
      ],
      [
        "▁plan",
        -8.948638365066516
      ],
      [
        "-S",
        -8.94889519870352
      ],
      [
        "▁Ver",
        -8.949221928008587
      ],
      [
        "▁2022",
        -8.94927282322898
      ],
      [
        "ough",
        -8.950510680780344
      ],
      [
        "ses",
        -8.95123415137198
      ],
      [
        "46",
        -8.954384592466196
      ],
      [
        "(",
        -8.955824284340578
      ],
      [
        "▁17,",
        -8.955937929383827
      ],
      [
        "▁International",
        -8.956346786041602
      ],
      [
        "▁12,",
        -8.956651960302842
      ],
      [
        "▁good",
        -8.957877286626228
      ],
      [
        "▁Russian",
        -8.958267265198833
      ],
      [
        "ale",
        -8.95840584900438
      ],
      [
        "cle",
        -8.95900876487342
      ],
      [
        "▁(1",
        -8.961555618931467
      ],
      [
        "▁wrote",
        -8.961956842775061
      ],
      [
        "ec",
        -8.962635431016844
      ],
      [
        "▁common",
        -8.962870477338761
      ],
      [
        "▁win",
        -8.963754773266848
      ],
      [
        "ome",
        -8.963762685694308
      ],
      [
        "▁another",
        -8.963765859421738
      ],
      [
        "▁version",
        -8.96400360176154
      ],
      [
        "rus",
        -8.967686914397396
      ],
      [
        "▁public",
        -8.970088959697756
      ],
      [
        "▁Canadian",
        -8.970717138639984
      ],
      [
        "ek",
        -8.970827604697561
      ],
      [
        "58",
        -8.97361176974954
      ],
      [
        "▁29,",
        -8.974311071944902
      ],
      [
        "▁Wa",
        -8.974835060816373
      ],
      [
        "52",
        -8.974912346061984
      ],
      [
        ".<unk>He",
        -8.975297955354632
      ],
      [
        "su",
        -8.976665961855025
      ],
      [
        "▁opera",
        -8.977514980467788
      ],
      [
        "ox",
        -8.978265923033273
      ],
      [
        "▁island",
        -8.979230936157737
      ],
      [
        "▁Va",
        -8.981526260028149
      ],
      [
        "▁moved",
        -8.984120309378872
      ],
      [
        "nes",
        -8.984672359766973
      ],
      [
        "▁Mc",
        -8.98468006256789
      ],
      [
        "<unk>Ro",
        -8.98600743234459
      ],
      [
        "mor",
        -8.986281465220692
      ],
      [
        "53",
        -8.987549065410196
      ],
      [
        "▁8,",
        -8.987562277909728
      ],
      [
        "ments",
        -8.9882533158608
      ],
      [
        "▁even",
        -8.990845509870814
      ],
      [
        "▁1995",
        -8.991068817618018
      ],
      [
        "▁point",
        -8.991101468587534
      ],
      [
        "▁inter",
        -8.992471132653982
      ],
      [
        "▁China",
        -8.993205121657018
      ],
      [
        "▁body",
        -8.993283441773857
      ],
      [
        "▁19,",
        -8.994380908370886
      ],
      [
        "pro",
        -8.9949994203637
      ],
      [
        "orn",
        -8.996376108152493
      ],
      [
        "0||0||",
        -8.996877819586203
      ],
      [
        "▁order",
        -8.996885201876408
      ],
      [
        "▁Ed",
        -8.99700770236017
      ],
      [
        "og",
        -8.99779512608072
      ],
      [
        "out",
        -8.998333480785078
      ],
      [
        "▁School",
        -8.998560108631825
      ],
      [
        "▁<unk>In",
        -8.998591842279707
      ],
      [
        "▁Union",
        -8.999183260118379
      ],
      [
        "▁6,",
        -8.999533319855395
      ],
      [
        "▁Texas",
        -8.999850694927806
      ],
      [
        "▁close",
        -9.000689816327416
      ],
      [
        "▁Ab",
        -9.000700356706846
      ],
      [
        "▁company",
        -9.001484237203734
      ],
      [
        "▁held",
        -9.002043909200374
      ],
      [
        "▁You",
        -9.002458041597057
      ],
      [
        "▁Sh",
        -9.00306771273032
      ],
      [
        "▁need",
        -9.003300784787317
      ],
      [
        "ort",
        -9.00488102521851
      ],
      [
        "sco",
        -9.006008869459496
      ],
      [
        "▁composer",
        -9.011251707574921
      ],
      [
        "▁character",
        -9.011337725382289
      ],
      [
        "ue",
        -9.011568582623738
      ],
      [
        "▁Au",
        -9.012409015199806
      ],
      [
        "<unk>De",
        -9.012949027761868
      ],
      [
        "gent",
        -9.014697248560706
      ],
      [
        "▁given",
        -9.015204144181887
      ],
      [
        "▁third",
        -9.01551083985423
      ],
      [
        "▁Ya",
        -9.015786646980683
      ],
      [
        "<unk>Actors",
        -9.016710866091474
      ],
      [
        "▁title",
        -9.017306830680454
      ],
      [
        "▁Tra",
        -9.01825478916442
      ],
      [
        "▁politicians",
        -9.019620463127138
      ],
      [
        "kin",
        -9.020495276627784
      ],
      [
        "▁Ben",
        -9.021173799500238
      ],
      [
        "mu",
        -9.021306733368823
      ],
      [
        "▁young",
        -9.021937487570488
      ],
      [
        "-M",
        -9.022057003971508
      ],
      [
        "▁author",
        -9.022102983350981
      ],
      [
        "▁Ku",
        -9.022560256687937
      ],
      [
        "▁members",
        -9.023431437694951
      ],
      [
        "▁census",
        -9.02364945767941
      ],
      [
        "▁11,",
        -9.026161232082679
      ],
      [
        "▁south",
        -9.02668123354672
      ],
      [
        "▁political",
        -9.027743062184513
      ],
      [
        "▁control",
        -9.029142894001875
      ],
      [
        "▁present",
        -9.0291660227945
      ],
      [
        "▁European",
        -9.029196947244996
      ],
      [
        "▁art",
        -9.03203878640177
      ],
      [
        "▁word",
        -9.03417764669805
      ],
      [
        "56",
        -9.034432878632359
      ],
      [
        "▁(18",
        -9.034598069933606
      ],
      [
        "▁Mont",
        -9.037351765264116
      ],
      [
        "▁(A",
        -9.037929629940079
      ],
      [
        "▁just",
        -9.03843849211244
      ],
      [
        "ith",
        -9.039137997757932
      ],
      [
        "net",
        -9.040141791370242
      ],
      [
        "▁result",
        -9.040330047664517
      ],
      [
        "06",
        -9.040375168893164
      ],
      [
        "<unk>No",
        -9.04069785930642
      ],
      [
        "len",
        -9.041887260347819
      ],
      [
        "▁1994",
        -9.041904497138908
      ],
      [
        "▁Paris",
        -9.044607712600028
      ],
      [
        "▁Chicago",
        -9.046216688709517
      ],
      [
        "▁six",
        -9.046320915927087
      ],
      [
        "▁village",
        -9.04723490638741
      ],
      [
        "▁Bur",
        -9.047717607665083
      ],
      [
        "lation",
        -9.04920718980063
      ],
      [
        "ned",
        -9.04957274179746
      ],
      [
        "▁100",
        -9.04973677732684
      ],
      [
        "par",
        -9.050803908094462
      ],
      [
        "cast",
        -9.051675294174037
      ],
      [
        "▁1980",
        -9.051931307662873
      ],
      [
        "▁things",
        -9.053403271821354
      ],
      [
        "▁Los",
        -9.053911166734032
      ],
      [
        "▁Fin",
        -9.054414038596434
      ],
      [
        "▁Official",
        -9.054499635322253
      ],
      [
        "▁killed",
        -9.054848617318685
      ],
      [
        "ax",
        -9.055111639642394
      ],
      [
        "▁son",
        -9.055658519548691
      ],
      [
        "▁Fi",
        -9.055660359023884
      ],
      [
        "▁26,",
        -9.056536851746014
      ],
      [
        "▁Italy",
        -9.057034545594844
      ],
      [
        "ug",
        -9.057232490166935
      ],
      [
        "time",
        -9.057272288340657
      ],
      [
        ".<unk>History",
        -9.057515378993367
      ],
      [
        "▁pages",
        -9.059214733070633
      ],
      [
        "rac",
        -9.059664803344116
      ],
      [
        "▁1993",
        -9.060466448878945
      ],
      [
        "pri",
        -9.060840412530409
      ],
      [
        "▁Prime",
        -9.061426378262187
      ],
      [
        "for",
        -9.06155861289887
      ],
      [
        "▁1960",
        -9.062149075351266
      ],
      [
        "▁novel",
        -9.062821354117933
      ],
      [
        "▁Great",
        -9.063242046434342
      ],
      [
        "tar",
        -9.064937645715931
      ],
      [
        "During",
        -9.065086899330677
      ],
      [
        "bon",
        -9.065095001483341
      ],
      [
        "▁times",
        -9.065120473257622
      ],
      [
        "▁Bri",
        -9.06517791631672
      ],
      [
        ".<unk>On",
        -9.06606276535052
      ],
      [
        "vor",
        -9.066787359712645
      ],
      [
        "▁military",
        -9.068151342322148
      ],
      [
        "bert",
        -9.070433062147274
      ],
      [
        "▁worked",
        -9.070476250557785
      ],
      [
        "▁Min",
        -9.072082731967638
      ],
      [
        "▁Fu",
        -9.0724027796557
      ],
      [
        "▁Che",
        -9.074289826091517
      ],
      [
        "▁met",
        -9.07521354416435
      ],
      [
        "so",
        -9.075571593165291
      ],
      [
        "fo",
        -9.076249780440516
      ],
      [
        "tch",
        -9.076716643332817
      ],
      [
        "Phil",
        -9.076869813302554
      ],
      [
        "uc",
        -9.077105783355199
      ],
      [
        "▁Sea",
        -9.077125591138769
      ],
      [
        "▁cause",
        -9.078063845250407
      ],
      [
        "▁Air",
        -9.079477245703837
      ],
      [
        "▁living",
        -9.079514297566156
      ],
      [
        "▁episode",
        -9.080119868478699
      ],
      [
        "ful",
        -9.080776638615967
      ],
      [
        "▁Day",
        -9.081971080993224
      ],
      [
        "▁period",
        -9.082934928967289
      ],
      [
        "▁along",
        -9.08312156393672
      ],
      [
        "▁start",
        -9.084540718790434
      ],
      [
        "▁light",
        -9.084580635624524
      ],
      [
        "▁disease",
        -9.08468967925242
      ],
      [
        "▁Australian",
        -9.085368804182982
      ],
      [
        "▁five",
        -9.085393583512653
      ],
      [
        "▁13,",
        -9.085638920705684
      ],
      [
        "▁comedy",
        -9.086191846552426
      ],
      [
        "LO",
        -9.086553350205733
      ],
      [
        "wood",
        -9.087640847036848
      ],
      [
        "▁books",
        -9.088112880635231
      ],
      [
        "lt",
        -9.088263349412994
      ],
      [
        "unt",
        -9.088426996169733
      ],
      [
        "▁1992",
        -9.091402274099707
      ],
      [
        "▁race",
        -9.092650274543834
      ],
      [
        "▁Pu",
        -9.094149492406327
      ],
      [
        "col",
        -9.094652430232438
      ],
      [
        "▁Ber",
        -9.097084938183029
      ],
      [
        "▁Asia",
        -9.09781354329236
      ],
      [
        "ux",
        -9.098426123436504
      ],
      [
        "▁Shi",
        -9.099187975590285
      ],
      [
        "▁Gar",
        -9.100059884272696
      ],
      [
        "▁15,",
        -9.100819625998296
      ],
      [
        "ame",
        -9.102327131954668
      ],
      [
        "erv",
        -9.10246936353967
      ],
      [
        "▁side",
        -9.10322997728959
      ],
      [
        "▁Com",
        -9.1048380278796
      ],
      [
        "▁High",
        -9.10563934123064
      ],
      [
        "ade",
        -9.106646307960954
      ],
      [
        "▁Tri",
        -9.106840084177236
      ],
      [
        "rop",
        -9.107012045781746
      ],
      [
        "▁Christian",
        -9.107361723655941
      ],
      [
        "▁heart",
        -9.108548305734907
      ],
      [
        "▁served",
        -9.108634313878593
      ],
      [
        "can",
        -9.109248235173306
      ],
      [
        "▁Dan",
        -9.110443640939186
      ],
      [
        "▁Fe",
        -9.110580639372328
      ],
      [
        "▁refer",
        -9.110646835752407
      ],
      [
        "es.",
        -9.111620022699455
      ],
      [
        "▁month",
        -9.112604373106477
      ],
      [
        ").<unk>",
        -9.113231618720699
      ],
      [
        "▁look",
        -9.11413913365393
      ],
      [
        "▁app",
        -9.114578738684271
      ],
      [
        "▁21",
        -9.115091782580844
      ],
      [
        "▁Peter",
        -9.115223816130463
      ],
      [
        "dom",
        -9.116284586933025
      ],
      [
        "rat",
        -9.116502579192238
      ],
      [
        "▁published",
        -9.119180262253582
      ],
      [
        "▁21,",
        -9.119296174478963
      ],
      [
        "▁data",
        -9.120105077844281
      ],
      [
        "▁Hol",
        -9.12016904347805
      ],
      [
        "des",
        -9.121000008603277
      ],
      [
        "▁using",
        -9.121320103142164
      ],
      [
        "▁Angeles",
        -9.121993532381621
      ],
      [
        ".<unk>E",
        -9.122327751571653
      ],
      [
        "▁again",
        -9.123088031830337
      ],
      [
        "▁25,",
        -9.123260592706965
      ],
      [
        "▁service",
        -9.12457995260955
      ],
      [
        "▁founded",
        -9.12466223732499
      ],
      [
        "▁Spanish",
        -9.125069988106496
      ],
      [
        "▁following",
        -9.12796411125472
      ],
      [
        "rain",
        -9.128165516443257
      ],
      [
        "▁1991",
        -9.12882065303041
      ],
      [
        "▁few",
        -9.128829568013197
      ],
      [
        "▁Can",
        -9.129321455059287
      ],
      [
        "leg",
        -9.129371796239253
      ],
      [
        "▁David",
        -9.12978059258913
      ],
      [
        "▁fla",
        -9.130347456808565
      ],
      [
        "▁28,",
        -9.130348901441849
      ],
      [
        "▁free",
        -9.130659409049935
      ],
      [
        "▁23,",
        -9.13129817921328
      ],
      [
        "▁24",
        -9.131963903338145
      ],
      [
        "s'",
        -9.131991142967994
      ],
      [
        "▁sc",
        -9.134182102931112
      ],
      [
        "▁Africa",
        -9.13493280854319
      ],
      [
        "▁grow",
        -9.135452921312089
      ],
      [
        "▁Red",
        -9.135598810949977
      ],
      [
        "ray",
        -9.136381566725083
      ],
      [
        "ock",
        -9.13642894162735
      ],
      [
        "▁fire",
        -9.136570396149269
      ],
      [
        "mate",
        -9.137573836553466
      ],
      [
        "mes",
        -9.1394951267784
      ],
      [
        "gin",
        -9.139619624296731
      ],
      [
        "▁J.",
        -9.139829514132602
      ],
      [
        "tes",
        -9.140320977575087
      ],
      [
        "▁train",
        -9.142005278506694
      ],
      [
        "▁special",
        -9.142086329328587
      ],
      [
        "ssa",
        -9.142561947124271
      ],
      [
        "▁My",
        -9.14384235934168
      ],
      [
        "▁cor",
        -9.144464101975407
      ],
      [
        "▁together",
        -9.144470765541733
      ],
      [
        "<unk>English",
        -9.144653060390057
      ],
      [
        "tive",
        -9.144983906210479
      ],
      [
        "ust",
        -9.145929857677357
      ],
      [
        "ative",
        -9.14706549885019
      ],
      [
        "▁Star",
        -9.147800671698294
      ],
      [
        "press",
        -9.14785264663825
      ],
      [
        "▁imp",
        -9.148490176321195
      ],
      [
        "bri",
        -9.149338035643893
      ],
      [
        "▁food",
        -9.14952339812891
      ],
      [
        "▁Hall",
        -9.151140516543496
      ],
      [
        "▁caused",
        -9.152212830916774
      ],
      [
        "▁house",
        -9.152230161406184
      ],
      [
        "off",
        -9.154628273646233
      ],
      [
        "▁pages<unk>",
        -9.154846505900153
      ],
      [
        "pl",
        -9.15526659715322
      ],
      [
        "▁30,",
        -9.156368190199183
      ],
      [
        "▁sometimes",
        -9.156505109936194
      ],
      [
        "yo",
        -9.15731184485801
      ],
      [
        "▁sea",
        -9.157438696453564
      ],
      [
        "▁Soviet",
        -9.157755675233016
      ],
      [
        "sha",
        -9.157851740948258
      ],
      [
        "▁pass",
        -9.158469842853178
      ],
      [
        "lia",
        -9.159470655695431
      ],
      [
        "ood",
        -9.16005675180622
      ],
      [
        "ura",
        -9.161061170811132
      ],
      [
        "▁site",
        -9.161108779990405
      ],
      [
        "▁Tu",
        -9.161266795714152
      ],
      [
        "▁king",
        -9.163508489648343
      ],
      [
        "▁off",
        -9.163672542946582
      ],
      [
        "▁Scott",
        -9.164228715296666
      ],
      [
        "▁W.",
        -9.165580602768781
      ],
      [
        "<unk>Re",
        -9.167178021075348
      ],
      [
        "▁Pri",
        -9.167784880243126
      ],
      [
        "▁Act",
        -9.167887790888082
      ],
      [
        "▁Cal",
        -9.168279789956133
      ],
      [
        "jo",
        -9.16842606019567
      ],
      [
        "▁Prince",
        -9.170959682224627
      ],
      [
        "▁albums",
        -9.17217102143528
      ],
      [
        "tru",
        -9.173132712245703
      ],
      [
        "▁final",
        -9.173407086591668
      ],
      [
        "uk",
        -9.173535666253352
      ],
      [
        "▁lot",
        -9.17360370675109
      ],
      [
        "ologist",
        -9.174283802506812
      ],
      [
        "▁case",
        -9.175464717740983
      ],
      [
        "▁Washington",
        -9.175599630609131
      ],
      [
        "cal",
        -9.175913117576986
      ],
      [
        "▁happen",
        -9.176243456926164
      ],
      [
        "▁Sc",
        -9.178441907881023
      ],
      [
        "▁goal",
        -9.178705676055095
      ],
      [
        "cycl",
        -9.178758702405972
      ],
      [
        "▁president",
        -9.179536958972419
      ],
      [
        "▁color",
        -9.181962213085736
      ],
      [
        "s.<unk>",
        -9.18313000223969
      ],
      [
        "▁1970",
        -9.183942298371345
      ],
      [
        "▁commune.",
        -9.184575925882994
      ],
      [
        "<unk>He",
        -9.184980046853902
      ],
      [
        "▁Charles",
        -9.185009410490576
      ],
      [
        "▁<unk>A",
        -9.185078654784666
      ],
      [
        "▁medal",
        -9.185173646900354
      ],
      [
        "▁thought",
        -9.185367388102254
      ],
      [
        "▁Han",
        -9.186010486739212
      ],
      [
        "▁Michael",
        -9.187112855637626
      ],
      [
        "gra",
        -9.187197221312124
      ],
      [
        "▁Best",
        -9.188292512321826
      ],
      [
        "▁\"S",
        -9.188355264680215
      ],
      [
        "rich",
        -9.18851672365781
      ],
      [
        "med",
        -9.188537755240008
      ],
      [
        "wo",
        -9.188700565771125
      ],
      [
        "ez",
        -9.1896026765207
      ],
      [
        "▁Bal",
        -9.190454510857382
      ],
      [
        ".\"",
        -9.190895482438817
      ],
      [
        "▁poet",
        -9.1913451177041
      ],
      [
        "▁Catholic",
        -9.19193706901925
      ],
      [
        "now",
        -9.19208002428365
      ],
      [
        "hat",
        -9.192575854280012
      ],
      [
        ".<unk>M",
        -9.192599812756848
      ],
      [
        "vol",
        -9.196075977784998
      ],
      [
        "zi",
        -9.196596827905363
      ],
      [
        "▁top",
        -9.197948695663484
      ],
      [
        "0,000",
        -9.198082521612097
      ],
      [
        "▁plays",
        -9.198848445361966
      ],
      [
        "▁22",
        -9.199010079676896
      ],
      [
        "ves",
        -9.199348142604189
      ],
      [
        "▁featur",
        -9.199794772533513
      ],
      [
        "▁fight",
        -9.199975086065962
      ],
      [
        "▁got",
        -9.201026198054546
      ],
      [
        "▁Pakistan",
        -9.202580602002655
      ],
      [
        "field",
        -9.203451330226386
      ],
      [
        "ia,",
        -9.203626556973255
      ],
      [
        "dra",
        -9.203667422988723
      ],
      [
        "l<unk>",
        -9.204347133908177
      ],
      [
        "ese",
        -9.204455701650001
      ],
      [
        "▁22,",
        -9.205942066821095
      ],
      [
        "-B",
        -9.205984460059739
      ],
      [
        "▁real",
        -9.206242562693937
      ],
      [
        "son,",
        -9.206617718060308
      ],
      [
        "▁works",
        -9.207952994748988
      ],
      [
        "▁mother",
        -9.208225924221765
      ],
      [
        "dge",
        -9.209725304426978
      ],
      [
        "▁Church",
        -9.21002137438823
      ],
      [
        "▁cover",
        -9.211544801911508
      ],
      [
        "er.",
        -9.212085342080522
      ],
      [
        "Z",
        -9.212189106023446
      ],
      [
        "ita",
        -9.212668990634029
      ],
      [
        "ani",
        -9.21331731128793
      ],
      [
        "▁sent",
        -9.215490668532741
      ],
      [
        "ible",
        -9.218053902252349
      ],
      [
        "tta",
        -9.218357277403351
      ],
      [
        "▁District",
        -9.220580560721022
      ],
      [
        "▁But",
        -9.222931172137988
      ],
      [
        "▁give",
        -9.223163019230253
      ],
      [
        "teen",
        -9.223700268903777
      ],
      [
        "▁Val",
        -9.225128263658101
      ],
      [
        "igh",
        -9.226091491032726
      ],
      [
        "je",
        -9.226452497317831
      ],
      [
        "▁Governor",
        -9.226787981610272
      ],
      [
        "▁friend",
        -9.226788993573281
      ],
      [
        "-C",
        -9.229410963410924
      ],
      [
        "▁put",
        -9.229471868663675
      ],
      [
        "▁level",
        -9.229863389323919
      ],
      [
        "sky",
        -9.230367779680034
      ],
      [
        "vers",
        -9.230368433648971
      ],
      [
        "▁27,",
        -9.230386896039066
      ],
      [
        "▁story",
        -9.230890771282835
      ],
      [
        "▁right",
        -9.23195078418859
      ],
      [
        "gon",
        -9.232812543631473
      ],
      [
        "▁idea",
        -9.234194946629469
      ],
      [
        "▁next",
        -9.234399915788437
      ],
      [
        "▁lead",
        -9.234697317811955
      ],
      [
        "▁Sun",
        -9.234724158153442
      ],
      [
        "▁computer",
        -9.235365919358136
      ],
      [
        "▁du",
        -9.235947013790895
      ],
      [
        "▁believe",
        -9.236478411330733
      ],
      [
        "shire",
        -9.237458938602884
      ],
      [
        "▁Mac",
        -9.237933157883726
      ],
      [
        "▁Win",
        -9.238013172086134
      ],
      [
        "▁example",
        -9.238418750858086
      ],
      [
        "▁open",
        -9.238680490599505
      ],
      [
        "<unk>St",
        -9.239132496813466
      ],
      [
        "ified",
        -9.239735160408761
      ],
      [
        "▁Pre",
        -9.240818615884956
      ],
      [
        "nch",
        -9.241616477859024
      ],
      [
        "▁local",
        -9.243076164302417
      ],
      [
        "▁1989",
        -9.243093866392778
      ],
      [
        "part",
        -9.243238214520554
      ],
      [
        "▁great",
        -9.24399622217397
      ],
      [
        "itch",
        -9.244518551570925
      ],
      [
        "▁Spain",
        -9.24567707547305
      ],
      [
        "gro",
        -9.245889448669441
      ],
      [
        "light",
        -9.246898767960747
      ],
      [
        "▁international",
        -9.24826936479232
      ],
      [
        "dia",
        -9.249140825071306
      ],
      [
        "var",
        -9.249235003462774
      ],
      [
        "▁Is",
        -9.249625741497313
      ],
      [
        "▁18,",
        -9.250104448772014
      ],
      [
        "▁Pol",
        -9.251350764442398
      ],
      [
        "ants",
        -9.251573536592776
      ],
      [
        "▁hand",
        -9.25178059395092
      ],
      [
        "▁Richard",
        -9.252152320877773
      ],
      [
        "late",
        -9.252265493533892
      ],
      [
        "▁making",
        -9.252558427477172
      ],
      [
        "▁(N",
        -9.253043987738696
      ],
      [
        "▁sw",
        -9.253519223172464
      ],
      [
        "▁Cla",
        -9.253602681358268
      ],
      [
        "2||0||",
        -9.25448409633137
      ],
      [
        "phy",
        -9.254946561348788
      ],
      [
        "sch",
        -9.25512239764733
      ],
      [
        "▁cat",
        -9.255403923800035
      ],
      [
        "ton,",
        -9.255478934782639
      ],
      [
        "ille",
        -9.256045037654978
      ],
      [
        "▁find",
        -9.257665286413754
      ],
      [
        "▁Kar",
        -9.258211712185926
      ],
      [
        "▁Democratic",
        -9.258235355634447
      ],
      [
        "▁politician.",
        -9.260875772352758
      ],
      [
        "▁women",
        -9.261209024150768
      ],
      [
        "tel",
        -9.261665386082766
      ],
      [
        "▁1981",
        -9.262256241486583
      ],
      [
        "play",
        -9.263217726995462
      ],
      [
        ".<unk>It",
        -9.263251603001724
      ],
      [
        "▁Mary",
        -9.26474393911508
      ],
      [
        "0<unk>|-<unk>|19",
        -9.265183256106729
      ],
      [
        "▁Florida",
        -9.266412311382803
      ],
      [
        "▁ten",
        -9.266507040348209
      ],
      [
        "▁follow",
        -9.268718029237888
      ],
      [
        ".<unk>F",
        -9.268734209860673
      ],
      [
        "put",
        -9.268794035315452
      ],
      [
        "▁Grand",
        -9.268888240582138
      ],
      [
        "▁(2",
        -9.26947310847103
      ],
      [
        "zz",
        -9.269515104101904
      ],
      [
        "gre",
        -9.270785051618008
      ],
      [
        "<unk>Cities",
        -9.273579726051297
      ],
      [
        "▁Illinois",
        -9.274330159086908
      ],
      [
        "▁Empire",
        -9.275183001426054
      ],
      [
        "▁Ste",
        -9.277995186200078
      ],
      [
        "▁23",
        -9.278708465124522
      ],
      [
        "mark",
        -9.279623831704228
      ],
      [
        "▁\"The",
        -9.282239684580512
      ],
      [
        "▁Queen",
        -9.282487246924036
      ],
      [
        ".<unk>D",
        -9.28262731298682
      ],
      [
        "hen",
        -9.282844460367267
      ],
      [
        "▁(P",
        -9.283891487776472
      ],
      [
        "▁God",
        -9.28436835868291
      ],
      [
        "▁similar",
        -9.286326035690385
      ],
      [
        "▁General",
        -9.286712328016405
      ],
      [
        "▁received",
        -9.286839269671374
      ],
      [
        "-A",
        -9.287227713754048
      ],
      [
        "tern",
        -9.289021422940221
      ],
      [
        "ates",
        -9.289720014087635
      ],
      [
        "▁Louis",
        -9.290070884002564
      ],
      [
        "▁Many",
        -9.29043097748024
      ],
      [
        "▁Black",
        -9.290512931734648
      ],
      [
        "▁Frank",
        -9.290962381237776
      ],
      [
        "ography",
        -9.291156170025769
      ],
      [
        "her",
        -9.291401851269512
      ],
      [
        "▁host",
        -9.292116041971704
      ],
      [
        "stan",
        -9.294761330836515
      ],
      [
        "▁female",
        -9.295419037978155
      ],
      [
        "n't",
        -9.295502232162866
      ],
      [
        "chan",
        -9.295702504463812
      ],
      [
        "▁Greek",
        -9.295943834279699
      ],
      [
        "▁College",
        -9.296003138568695
      ],
      [
        "▁1988",
        -9.297073558845
      ],
      [
        "tz",
        -9.299985828924752
      ],
      [
        "of",
        -9.300086666775778
      ],
      [
        "▁Tre",
        -9.300098857501268
      ],
      [
        "rom",
        -9.300364425952171
      ],
      [
        "▁enter",
        -9.30176099256426
      ],
      [
        "less",
        -9.301957897838884
      ],
      [
        "▁Er",
        -9.302440987721273
      ],
      [
        "]",
        -9.302693705397244
      ],
      [
        "▁Time",
        -9.303216222181673
      ],
      [
        "ram",
        -9.303404750488157
      ],
      [
        "gal",
        -9.303625933549954
      ],
      [
        "-L",
        -9.303720974306227
      ],
      [
        "cer",
        -9.304153328493692
      ],
      [
        "▁manager",
        -9.30490725774089
      ],
      [
        ".com",
        -9.305388626037681
      ],
      [
        "▁Summer",
        -9.305775949197436
      ],
      [
        "ude",
        -9.305968276141012
      ],
      [
        "▁east",
        -9.306343215459636
      ],
      [
        "▁read",
        -9.306608634446349
      ],
      [
        "▁west",
        -9.30693495994836
      ],
      [
        "spect",
        -9.308372834684848
      ],
      [
        "▁model",
        -9.308608380547161
      ],
      [
        "▁Chinese",
        -9.309588788704426
      ],
      [
        "ew",
        -9.31078263399663
      ],
      [
        "[",
        -9.311494642276505
      ],
      [
        "Ch",
        -9.31174146960582
      ],
      [
        "▁frog",
        -9.312343599572872
      ],
      [
        "▁Olympic",
        -9.313404819560928
      ],
      [
        "tory",
        -9.313756606333746
      ],
      [
        "▁E.",
        -9.315289755926262
      ],
      [
        "▁contain",
        -9.31538362662277
      ],
      [
        "▁(B",
        -9.317830691043635
      ],
      [
        "▁located",
        -9.319779615446635
      ],
      [
        "tation",
        -9.319995482586918
      ],
      [
        "ope",
        -9.321621832608935
      ],
      [
        "▁modern",
        -9.323225042469252
      ],
      [
        "▁original",
        -9.32371014611047
      ],
      [
        "▁science",
        -9.324100620236115
      ],
      [
        "▁Most",
        -9.3255306322142
      ],
      [
        "▁Fri",
        -9.326590257616791
      ],
      [
        "ize",
        -9.32706649852557
      ],
      [
        "<unk>2020",
        -9.32799001373851
      ],
      [
        "▁debut",
        -9.329126647436832
      ],
      [
        "▁daughter",
        -9.329332353492306
      ],
      [
        "▁Sweden",
        -9.329484013702645
      ],
      [
        "▁style",
        -9.329732010229701
      ],
      [
        "right",
        -9.329992603346298
      ],
      [
        "▁say",
        -9.330665694845495
      ],
      [
        "?",
        -9.330683093541104
      ],
      [
        "poli",
        -9.330840557148765
      ],
      [
        "well",
        -9.332766743552959
      ],
      [
        "▁black",
        -9.332813487738928
      ],
      [
        "rum",
        -9.332985138077268
      ],
      [
        "▁Israel",
        -9.333093291777686
      ],
      [
        "▁those",
        -9.333788111103836
      ],
      [
        "NA",
        -9.333992052770665
      ],
      [
        "km",
        -9.33601756537976
      ],
      [
        "▁child",
        -9.337455186868295
      ],
      [
        "▁Ph",
        -9.337559963755737
      ],
      [
        "▁seen",
        -9.339462607506384
      ],
      [
        "▁Academy",
        -9.339735375566473
      ],
      [
        "▁Kansas",
        -9.340040401285174
      ],
      [
        "▁critic",
        -9.340527973297885
      ],
      [
        ".<unk>G",
        -9.34134929695461
      ],
      [
        "▁Dutch",
        -9.341354201763638
      ],
      [
        "▁sign",
        -9.34234023689236
      ],
      [
        "▁represent",
        -9.34277904383041
      ],
      [
        "ano",
        -9.343125973766515
      ],
      [
        "▁Tom",
        -9.34373614833244
      ],
      [
        "▁parts",
        -9.345309890178488
      ],
      [
        "pper",
        -9.345486940603875
      ],
      [
        "▁should",
        -9.34688340541147
      ],
      [
        "▁produced",
        -9.347257296321816
      ],
      [
        "▁sound",
        -9.348306151459624
      ],
      [
        "▁remain",
        -9.349535942715393
      ],
      [
        "▁Switzerland",
        -9.349634540021707
      ],
      [
        "▁less",
        -9.349885342503445
      ],
      [
        "pho",
        -9.350366599457784
      ],
      [
        "▁hockey",
        -9.350400178971979
      ],
      [
        "▁Mexico",
        -9.351319857726255
      ],
      [
        "▁vote",
        -9.35184643768066
      ],
      [
        "-19",
        -9.352234011058295
      ],
      [
        "▁formed",
        -9.352409818856236
      ],
      [
        "▁hit",
        -9.353609936439481
      ],
      [
        "▁Mil",
        -9.354091715064301
      ],
      [
        "▁due",
        -9.354107787289259
      ],
      [
        "ppe",
        -9.355623199339947
      ],
      [
        "▁brother",
        -9.35671212632318
      ],
      [
        "▁Dar",
        -9.357229332321555
      ],
      [
        "▁Virginia",
        -9.358860411895648
      ],
      [
        "▁Ant",
        -9.360478603481415
      ],
      [
        "▁Bre",
        -9.361668897975687
      ],
      [
        "▁Army",
        -9.362187532530708
      ],
      [
        "▁Spe",
        -9.36265708685537
      ],
      [
        "▁white",
        -9.362889839328178
      ],
      [
        "▁elected",
        -9.363042842971591
      ],
      [
        "▁money",
        -9.36323232705824
      ],
      [
        "-P",
        -9.363853664405982
      ],
      [
        "▁TV",
        -9.363975875533846
      ],
      [
        "▁tree",
        -9.36410511703332
      ],
      [
        "uck",
        -9.364189492911224
      ],
      [
        "<unk>An",
        -9.364204882235953
      ],
      [
        "▁wife",
        -9.364790421445914
      ],
      [
        "media",
        -9.366095167715473
      ],
      [
        "▁Russia",
        -9.36655027231416
      ],
      [
        "▁office",
        -9.367409450795403
      ],
      [
        "▁total",
        -9.367824056648383
      ],
      [
        "udi",
        -9.368727199756854
      ],
      [
        "▁kind",
        -9.369584433196373
      ],
      [
        "▁Music",
        -9.36960868716848
      ],
      [
        "▁led",
        -9.370477016429133
      ],
      [
        "<unk>Al",
        -9.370923645054544
      ],
      [
        "▁events",
        -9.371001932456698
      ],
      [
        "bl",
        -9.371164092791778
      ],
      [
        "board",
        -9.371715536372582
      ],
      [
        "▁(R",
        -9.372254305360762
      ],
      [
        "<unk>La",
        -9.372470249641175
      ],
      [
        "ivers",
        -9.372548669615956
      ],
      [
        "<unk>Li",
        -9.373202595153023
      ],
      [
        "▁natural",
        -9.373489107655086
      ],
      [
        "<unk>Com",
        -9.373791403205388
      ],
      [
        "▁big",
        -9.37439814987659
      ],
      [
        "▁problems",
        -9.377855236667282
      ],
      [
        "▁Council",
        -9.379304328351834
      ],
      [
        "▁strong",
        -9.379490468694947
      ],
      [
        "▁Prize",
        -9.379673254885766
      ],
      [
        "▁Super",
        -9.381569302057443
      ],
      [
        "cur",
        -9.381952944605924
      ],
      [
        "▁1987",
        -9.382021778606218
      ],
      [
        "▁1986",
        -9.385882041046614
      ],
      [
        "▁Earth",
        -9.386331497713254
      ],
      [
        "▁late",
        -9.386396069702712
      ],
      [
        "rew",
        -9.386640749891372
      ],
      [
        "▁coach",
        -9.386668157619594
      ],
      [
        "ette",
        -9.388374036762755
      ],
      [
        "ency",
        -9.389329190629311
      ],
      [
        "▁days",
        -9.390060041064393
      ],
      [
        "▁Royal",
        -9.39085366498078
      ],
      [
        "i<unk>",
        -9.390948936218162
      ],
      [
        "rap",
        -9.391219986033294
      ],
      [
        "▁Chi",
        -9.392060032009551
      ],
      [
        "FC",
        -9.392664965912012
      ],
      [
        "tric",
        -9.393672881952142
      ],
      [
        "▁stars",
        -9.394245125020383
      ],
      [
        "▁journalist",
        -9.394325607350044
      ],
      [
        "▁mountain",
        -9.394396512037575
      ],
      [
        "▁makes",
        -9.396085624952665
      ],
      [
        "<unk>Ar",
        -9.396641259646783
      ],
      [
        "▁cities",
        -9.396661715531641
      ],
      [
        "▁Stan",
        -9.397358485518291
      ],
      [
        "lip",
        -9.397861274207049
      ],
      [
        "▁St.",
        -9.398444936295594
      ],
      [
        "struc",
        -9.398757309339638
      ],
      [
        "▁must",
        -9.399855462021055
      ],
      [
        "<unk>Di",
        -9.399988948204241
      ],
      [
        "▁River<unk>",
        -9.401011567092795
      ],
      [
        "▁mean",
        -9.401449818255644
      ],
      [
        "▁First",
        -9.40269325064825
      ],
      [
        "▁announced",
        -9.40329163734451
      ],
      [
        "▁27",
        -9.40349402461764
      ],
      [
        "▁joined",
        -9.403580594572153
      ],
      [
        "▁away",
        -9.40500606921867
      ],
      [
        "▁1973",
        -9.405470933992218
      ],
      [
        "▁characters",
        -9.40632836599116
      ],
      [
        "▁Green",
        -9.406670650038567
      ],
      [
        "▁party",
        -9.409160729942373
      ],
      [
        "without",
        -9.410838030038477
      ],
      [
        "▁(3",
        -9.4108867764221
      ],
      [
        "▁process",
        -9.41103529634186
      ],
      [
        "▁Fo",
        -9.411185995525994
      ],
      [
        "▁Hill",
        -9.41126606301286
      ],
      [
        "<unk>Writers",
        -9.411671908395691
      ],
      [
        "▁Sta",
        -9.411951176790053
      ],
      [
        "▁\"B",
        -9.412185894472588
      ],
      [
        "▁activist",
        -9.412486601250594
      ],
      [
        "▁28",
        -9.412891266820287
      ],
      [
        "hop",
        -9.412990118619227
      ],
      [
        "ious",
        -9.414905527084404
      ],
      [
        "via",
        -9.414917698731102
      ],
      [
        "▁radio",
        -9.415461678555683
      ],
      [
        "▁1979",
        -9.416282446446363
      ],
      [
        "▁move",
        -9.416680578324613
      ],
      [
        "▁position",
        -9.417194179078356
      ],
      [
        "▁complete",
        -9.417656758165078
      ],
      [
        "▁Char",
        -9.417936636414908
      ],
      [
        "▁fr",
        -9.418005556145888
      ],
      [
        "▁Mal",
        -9.418255484105648
      ],
      [
        "q",
        -9.418268084586282
      ],
      [
        "▁example,",
        -9.418795377861318
      ],
      [
        "▁treat",
        -9.41968345948078
      ],
      [
        "<unk>2010",
        -9.421234154791083
      ],
      [
        "Sportspeople",
        -9.422806945423499
      ],
      [
        "<unk>British",
        -9.423136943717505
      ],
      [
        "▁hard",
        -9.423869403216537
      ],
      [
        "▁1950",
        -9.424344962777859
      ],
      [
        "▁lost",
        -9.424744703108964
      ],
      [
        "▁describe",
        -9.425775531026305
      ],
      [
        "avi",
        -9.425895738391462
      ],
      [
        "▁Henry",
        -9.426411509423797
      ],
      [
        "\")",
        -9.426854390524873
      ],
      [
        "▁fin",
        -9.427083335307335
      ],
      [
        "▁Comm",
        -9.427139354360824
      ],
      [
        "ull",
        -9.427474687288788
      ],
      [
        "pur",
        -9.427982747631365
      ],
      [
        "viol",
        -9.428104518346283
      ],
      [
        "<unk>Towns",
        -9.42875706097706
      ],
      [
        "▁border",
        -9.428991727441298
      ],
      [
        "):",
        -9.429598094819225
      ],
      [
        "▁civil",
        -9.429605602324273
      ],
      [
        "ification",
        -9.430923932921605
      ],
      [
        "▁think",
        -9.43092866071831
      ],
      [
        ".<unk>Re",
        -9.431868738941809
      ],
      [
        "<unk>Mi",
        -9.431959199721454
      ],
      [
        "mission",
        -9.432031994808522
      ],
      [
        "▁student",
        -9.433236736816784
      ],
      [
        "<unk>Me",
        -9.433535357710717
      ],
      [
        "UN",
        -9.43380135947176
      ],
      [
        "▁center",
        -9.43411371686
      ],
      [
        "▁changed",
        -9.434275803094902
      ],
      [
        "▁fact",
        -9.4343279673829
      ],
      [
        "▁space",
        -9.434979650443218
      ],
      [
        "▁1977",
        -9.436771516713245
      ],
      [
        "▁defeat",
        -9.43686700438608
      ],
      [
        "▁26",
        -9.437302143954804
      ],
      [
        "▁social",
        -9.43793759572545
      ],
      [
        "-G",
        -9.439054194109145
      ],
      [
        "▁seven",
        -9.439405922304832
      ],
      [
        "gri",
        -9.439451248002543
      ],
      [
        "▁week",
        -9.439547672616703
      ],
      [
        "ida",
        -9.439650897277538
      ],
      [
        "count",
        -9.440421487480336
      ],
      [
        "1||0||",
        -9.441521828711027
      ],
      [
        "▁structure",
        -9.442100323832674
      ],
      [
        "<unk>After",
        -9.442349813861581
      ],
      [
        "ature",
        -9.442907622738492
      ],
      [
        "▁come",
        -9.443793698079741
      ],
      [
        "▁1984",
        -9.444384411360538
      ],
      [
        "▁Carolina",
        -9.44545772758025
      ],
      [
        "▁player.",
        -9.446461544857996
      ],
      [
        "▁If",
        -9.446521926410606
      ],
      [
        "▁Bill",
        -9.44717922116436
      ],
      [
        "ological",
        -9.447747112923224
      ],
      [
        "gave",
        -9.448415938750731
      ],
      [
        "<unk>Politicians",
        -9.44866326484553
      ],
      [
        "▁$",
        -9.449266475668988
      ],
      [
        "▁Thomas",
        -9.450356624484396
      ],
      [
        "▁cap",
        -9.451301569412594
      ],
      [
        "rated",
        -9.451326349669543
      ],
      [
        "▁match",
        -9.451745724558423
      ],
      [
        "ient",
        -9.452154049163848
      ],
      [
        "▁1985",
        -9.452578353080593
      ],
      [
        "▁current",
        -9.452877952110072
      ],
      [
        "▁tell",
        -9.45290556486509
      ],
      [
        "▁Tru",
        -9.453037113849392
      ],
      [
        "▁Republican",
        -9.454341164514673
      ],
      [
        "▁Year",
        -9.456159459317139
      ],
      [
        "▁1983",
        -9.456435107977223
      ],
      [
        "▁gene",
        -9.45675356189559
      ],
      [
        "▁wide",
        -9.457865559661348
      ],
      [
        "▁effect",
        -9.458001712424943
      ],
      [
        "ular",
        -9.458090809797726
      ],
      [
        "▁full",
        -9.458411415365179
      ],
      [
        "▁event",
        -9.459108237258002
      ],
      [
        "▁White",
        -9.46125842331188
      ],
      [
        "▁1982",
        -9.462352848607441
      ],
      [
        "▁Lake",
        -9.463271026300623
      ],
      [
        "rdin",
        -9.463282550289591
      ],
      [
        "▁crime",
        -9.46452682502222
      ],
      [
        "rent",
        -9.464711370966329
      ],
      [
        "▁Rock",
        -9.46541460073317
      ],
      [
        "pan",
        -9.46550453540961
      ],
      [
        "emp",
        -9.465841680591254
      ],
      [
        "▁birth",
        -9.46598072411563
      ],
      [
        "ole",
        -9.466216143662624
      ],
      [
        "meter",
        -9.46625210453064
      ],
      [
        "▁Za",
        -9.46658996837017
      ],
      [
        "▁mu",
        -9.46722478570511
      ],
      [
        "▁African",
        -9.468499894243765
      ],
      [
        "▁fiction",
        -9.468671131090234
      ],
      [
        "▁1976",
        -9.468871673679212
      ],
      [
        "▁playing",
        -9.471380752717618
      ],
      [
        "stone",
        -9.472895266268614
      ],
      [
        "▁rights",
        -9.473274773253758
      ],
      [
        "▁action",
        -9.47399700497908
      ],
      [
        "ization",
        -9.474450833509508
      ],
      [
        "▁People",
        -9.474952894592466
      ],
      [
        "▁Hale",
        -9.47537413526107
      ],
      [
        "▁eat",
        -9.475409517081053
      ],
      [
        "▁Central",
        -9.475902262548178
      ],
      [
        "▁protect",
        -9.476426280471804
      ],
      [
        "▁Georgia",
        -9.476943000780576
      ],
      [
        "▁Zealand",
        -9.47764214196067
      ],
      [
        "▁appeared",
        -9.478371144842713
      ],
      [
        "▁animals",
        -9.478653830317448
      ],
      [
        "▁1.5",
        -9.478991709900386
      ],
      [
        "▁Saint-",
        -9.479724577042203
      ],
      [
        "kov",
        -9.481200689754127
      ],
      [
        "▁(L",
        -9.481709930271716
      ],
      [
        "▁culture",
        -9.481835017848235
      ],
      [
        "▁mostly",
        -9.483227068702861
      ],
      [
        "▁movement",
        -9.483292616015
      ],
      [
        "▁super",
        -9.483506296186903
      ],
      [
        "▁gold",
        -9.485419688068744
      ],
      [
        "▁scientist",
        -9.485848530806278
      ],
      [
        "▁Games",
        -9.48861356819148
      ],
      [
        "ius",
        -9.488633026646275
      ],
      [
        "+",
        -9.490242481525524
      ],
      [
        "▁disc",
        -9.49026122002015
      ],
      [
        "duction",
        -9.490302163433217
      ],
      [
        "▁metal",
        -9.490608624776453
      ],
      [
        "rist",
        -9.490789825363393
      ],
      [
        "▁hold",
        -9.492393900258504
      ],
      [
        "▁pop",
        -9.492979656150263
      ],
      [
        "▁included",
        -9.493150649240189
      ],
      [
        "▁Association",
        -9.493241778583801
      ],
      [
        "▁Inter",
        -9.49546156855833
      ],
      [
        "ym",
        -9.49702608082945
      ],
      [
        "▁unit",
        -9.497278214107729
      ],
      [
        "▁By",
        -9.498271482312289
      ],
      [
        "▁travel",
        -9.498581853913873
      ],
      [
        "▁Love",
        -9.49912914472486
      ],
      [
        "▁1.4",
        -9.500302164401834
      ],
      [
        "▁Dra",
        -9.50117697128301
      ],
      [
        "▁Western",
        -9.502600022918681
      ],
      [
        "▁Bay",
        -9.502814851442162
      ],
      [
        "▁church",
        -9.502840334070768
      ],
      [
        "▁footballers",
        -9.504429184315597
      ],
      [
        "▁Arab",
        -9.504523390950174
      ],
      [
        "▁kill",
        -9.504553571584015
      ],
      [
        "▁(D",
        -9.504734400110868
      ],
      [
        "▁want",
        -9.505595577237484
      ],
      [
        "▁BC",
        -9.505620117857722
      ],
      [
        "▁score",
        -9.506925634918343
      ],
      [
        "<unk>Ra",
        -9.50749994594607
      ],
      [
        "▁bar",
        -9.507880081903599
      ],
      [
        "tsu",
        -9.50802487796373
      ],
      [
        "▁rest",
        -9.508936808246196
      ],
      [
        "vision",
        -9.509171929038123
      ],
      [
        "▁study",
        -9.509459518976925
      ],
      [
        "▁dance",
        -9.510993953877856
      ],
      [
        "<unk>On",
        -9.512037767498345
      ],
      [
        "▁1.6",
        -9.512310683032817
      ],
      [
        "tail",
        -9.512334671331182
      ],
      [
        "▁Port",
        -9.5134883032181
      ],
      [
        "mond",
        -9.513537579937893
      ],
      [
        "▁(a",
        -9.513964032426067
      ],
      [
        "▁#",
        -9.514072276127719
      ],
      [
        "illa",
        -9.51466247081348
      ],
      [
        "pit",
        -9.514898236650511
      ],
      [
        "▁Olympics",
        -9.515431486119324
      ],
      [
        "▁Records",
        -9.516149151013456
      ],
      [
        "having",
        -9.517423138057483
      ],
      [
        "run",
        -9.51922759616215
      ],
      [
        "▁1978",
        -9.51971778036723
      ],
      [
        "▁love",
        -9.51988606668693
      ],
      [
        "bil",
        -9.519899676990427
      ],
      [
        "United",
        -9.521613164952372
      ],
      [
        "▁1975",
        -9.525529831487352
      ],
      [
        "pha",
        -9.526034173226293
      ],
      [
        "▁fish",
        -9.526523184993994
      ],
      [
        "▁\"M",
        -9.527437101548077
      ],
      [
        "▁1972",
        -9.527700826871266
      ],
      [
        "0||0<unk>",
        -9.5284480120514
      ],
      [
        "arian",
        -9.528532415891055
      ],
      [
        "▁(the",
        -9.529044682228461
      ],
      [
        "istic",
        -9.529463451850388
      ],
      [
        "▁Ye",
        -9.5302926705482
      ],
      [
        "sexual",
        -9.532394712179373
      ],
      [
        "▁languages",
        -9.532511973412102
      ],
      [
        "bal",
        -9.532947882333431
      ],
      [
        "▁prison",
        -9.534057528599572
      ],
      [
        "▁(G",
        -9.534182432396467
      ],
      [
        "<unk>To",
        -9.534821501160321
      ],
      [
        "▁1971",
        -9.536884168744407
      ],
      [
        ".<unk>L",
        -9.537333842925078
      ],
      [
        "<unk>Related",
        -9.537931387754272
      ],
      [
        "▁Bel",
        -9.538299252249585
      ],
      [
        "▁Battle",
        -9.538435997880802
      ],
      [
        "spir",
        -9.539005100809122
      ],
      [
        "▁canton",
        -9.539965219074249
      ],
      [
        "▁31,",
        -9.54045946320417
      ],
      [
        "▁wanted",
        -9.540664857617413
      ],
      [
        "▁Court",
        -9.54117672937738
      ],
      [
        "▁Province",
        -9.541198006324791
      ],
      [
        "<unk>2000",
        -9.541495515774786
      ],
      [
        "▁1.3",
        -9.54171551992855
      ],
      [
        "▁Iran",
        -9.544017352195397
      ],
      [
        "▁Martin",
        -9.54427559848487
      ],
      [
        "▁Ve",
        -9.545992838957739
      ],
      [
        "▁engineer",
        -9.547765893719866
      ],
      [
        "▁leave",
        -9.548260979217794
      ],
      [
        "▁(T",
        -9.54833371257707
      ],
      [
        "▁test",
        -9.548749156623652
      ],
      [
        "ody",
        -9.548882360962322
      ],
      [
        "▁Jersey",
        -9.550323366905857
      ],
      [
        "▁comes",
        -9.550465739393662
      ],
      [
        "gh",
        -9.550590714185587
      ],
      [
        "-20",
        -9.550963208084944
      ],
      [
        "▁Pan",
        -9.552222025228854
      ],
      [
        "▁studio",
        -9.55257273783381
      ],
      [
        "▁From",
        -9.552778458412908
      ],
      [
        "▁Ter",
        -9.554239163286388
      ],
      [
        "lies",
        -9.55577929696504
      ],
      [
        "▁Ireland",
        -9.557468470052857
      ],
      [
        "▁Ken",
        -9.558479893914411
      ],
      [
        "▁Edward",
        -9.559266922839404
      ],
      [
        "▁sports",
        -9.559403213589015
      ],
      [
        "Count",
        -9.559534090985176
      ],
      [
        "CA",
        -9.559677023391892
      ],
      [
        "▁learn",
        -9.559975250537901
      ],
      [
        "▁1974",
        -9.560664474351555
      ],
      [
        "▁half",
        -9.561853964302514
      ],
      [
        "▁stop",
        -9.562114948961552
      ],
      [
        "▁simpl",
        -9.56529347702715
      ],
      [
        "▁(H",
        -9.565384070890632
      ],
      [
        "▁coast",
        -9.566858941542991
      ],
      [
        "xi",
        -9.567250011180246
      ],
      [
        "▁fall",
        -9.567317620146026
      ],
      [
        "▁Center",
        -9.56834637134499
      ],
      [
        "▁Yu",
        -9.568979487167
      ],
      [
        "pic",
        -9.569705677145913
      ],
      [
        "▁better",
        -9.57025064697445
      ],
      [
        "200",
        -9.57068478751059
      ],
      [
        "▁Silla",
        -9.57068638728581
      ],
      [
        "▁1.8",
        -9.570904982805903
      ],
      [
        "▁developed",
        -9.571794650199756
      ],
      [
        "▁post",
        -9.572974835540263
      ],
      [
        "▁date",
        -9.573474596987353
      ],
      [
        "▁arm",
        -9.57452602530181
      ],
      [
        "▁Vol",
        -9.57476189581844
      ],
      [
        "vil",
        -9.575059732600062
      ],
      [
        "▁information",
        -9.575548845155568
      ],
      [
        "elle",
        -9.57560049282958
      ],
      [
        "▁Prefecture",
        -9.575901541432648
      ],
      [
        "ped",
        -9.579517349611764
      ],
      [
        "▁mix",
        -9.57965974831183
      ],
      [
        "▁connect",
        -9.581690433232588
      ],
      [
        "duce",
        -9.5822976291246
      ],
      [
        "▁Netherlands",
        -9.582448217070679
      ],
      [
        "itz",
        -9.582917261754092
      ],
      [
        "▁Emperor",
        -9.583221261524892
      ],
      [
        "▁mass",
        -9.584393056260268
      ],
      [
        "▁electro",
        -9.584419958076651
      ],
      [
        "▁studied",
        -9.584771791273734
      ],
      [
        "▁Van",
        -9.585945751668937
      ],
      [
        "more",
        -9.586166275348123
      ],
      [
        "▁Division",
        -9.587064467794734
      ],
      [
        "▁established",
        -9.58717491862172
      ],
      [
        "▁Other",
        -9.587688292645305
      ],
      [
        "▁exist",
        -9.587802607622052
      ],
      [
        "▁Cu",
        -9.588407722889826
      ],
      [
        "akala",
        -9.590098665232157
      ],
      [
        "▁flow",
        -9.5902343670509
      ],
      [
        "▁court",
        -9.590728870932832
      ],
      [
        "▁taken",
        -9.59113062379547
      ],
      [
        "▁Sho",
        -9.59191752576349
      ],
      [
        "rowspan=\"3\"|",
        -9.591959115896856
      ],
      [
        "cess",
        -9.592093507595779
      ],
      [
        "▁southern",
        -9.593475397535691
      ],
      [
        "▁failure",
        -9.59352184956747
      ],
      [
        "▁battle",
        -9.59410916169351
      ],
      [
        "▁round",
        -9.595737299737747
      ],
      [
        "among",
        -9.596225820897981
      ],
      [
        "▁List",
        -9.597597426390955
      ],
      [
        "lock",
        -9.598105208190473
      ],
      [
        "Municipalities",
        -9.598415800403396
      ],
      [
        "II",
        -9.599163729756738
      ],
      [
        "BC",
        -9.600186474301298
      ],
      [
        "▁speak",
        -9.60177414171629
      ],
      [
        "SA",
        -9.603817517778772
      ],
      [
        "▁\"I",
        -9.604217650594823
      ],
      [
        "volution",
        -9.604478795052902
      ],
      [
        "▁Bor",
        -9.604514325562512
      ],
      [
        "▁\"A",
        -9.604585263218146
      ],
      [
        "▁(I",
        -9.605980461217548
      ],
      [
        "▁allow",
        -9.606343475188389
      ],
      [
        "▁Spring",
        -9.606591053321704
      ],
      [
        "▁COVID-19",
        -9.607486157343942
      ],
      [
        "hr",
        -9.610315248095036
      ],
      [
        "▁Mount",
        -9.610638315468334
      ],
      [
        "▁community",
        -9.611271186323041
      ],
      [
        "▁counties",
        -9.611271840024358
      ],
      [
        "▁woman",
        -9.611323746862377
      ],
      [
        "▁2.0",
        -9.61160493478788
      ],
      [
        "<unk>Geography",
        -9.61267413528723
      ],
      [
        "▁Lee",
        -9.613920635589341
      ],
      [
        "town",
        -9.6142766658575
      ],
      [
        "hall",
        -9.61458706212955
      ],
      [
        "▁That",
        -9.615424898534515
      ],
      [
        "th-century",
        -9.615440959573862
      ],
      [
        "▁1.7",
        -9.615859552336643
      ],
      [
        "<unk>Bo",
        -9.617062068326362
      ],
      [
        "hang",
        -9.61721700273679
      ],
      [
        "bul",
        -9.618265031603913
      ],
      [
        "stitut",
        -9.619167567426022
      ],
      [
        "▁fun",
        -9.621207082321673
      ],
      [
        "<unk>Le",
        -9.62133584634075
      ],
      [
        "▁done",
        -9.62193762096355
      ],
      [
        "▁turn",
        -9.621979959522989
      ],
      [
        "▁business",
        -9.622022915564768
      ],
      [
        "▁1.2",
        -9.622600614793448
      ],
      [
        "▁1968",
        -9.624590280449256
      ],
      [
        "▁research",
        -9.624875516427926
      ],
      [
        "took",
        -9.624958910648889
      ],
      [
        "pre",
        -9.625114645181782
      ],
      [
        "▁talk",
        -9.625617954013784
      ],
      [
        "▁Sam",
        -9.625726139153356
      ],
      [
        "▁Far",
        -9.625788485373132
      ],
      [
        "print",
        -9.626003568463343
      ],
      [
        "▁considered",
        -9.626200264147007
      ],
      [
        "cade",
        -9.626849869987035
      ],
      [
        "▁Austria",
        -9.627507421025642
      ],
      [
        "▁circ",
        -9.628066705231523
      ],
      [
        "<unk>Settlements",
        -9.628099255547076
      ],
      [
        "▁Ly",
        -9.628396354806553
      ],
      [
        "cro",
        -9.629301054176088
      ],
      [
        "▁meaning",
        -9.629853378907413
      ],
      [
        "▁though",
        -9.630559072696377
      ],
      [
        "▁never",
        -9.630623238631209
      ],
      [
        "||rowspan=\"2\"|",
        -9.63181919164576
      ],
      [
        "▁Mur",
        -9.632043164386026
      ],
      [
        "▁above",
        -9.632411744281681
      ],
      [
        "▁call",
        -9.633311715571866
      ],
      [
        "LS",
        -9.63447190570226
      ],
      [
        "▁object",
        -9.634997974231595
      ],
      [
        "▁With",
        -9.635461516694615
      ],
      [
        "▁eight",
        -9.635469914683885
      ],
      [
        "war",
        -9.636171303511569
      ],
      [
        "▁champion",
        -9.63644622013283
      ],
      [
        "▁auto",
        -9.636452419272523
      ],
      [
        "<unk>French",
        -9.638058339370414
      ],
      [
        "▁UK",
        -9.63834910580491
      ],
      [
        "▁almost",
        -9.640102550453118
      ],
      [
        "▁III",
        -9.640570850185128
      ],
      [
        "▁Museum",
        -9.640718396660946
      ],
      [
        "▁meet",
        -9.640757833478428
      ],
      [
        "▁keep",
        -9.641848432158458
      ],
      [
        "▁Ohio",
        -9.643414971735575
      ],
      [
        "▁male",
        -9.64380396481767
      ],
      [
        "▁Mark",
        -9.6456363018929
      ],
      [
        "▁appear",
        -9.646285735542392
      ],
      [
        "▁northern",
        -9.647373716188962
      ],
      [
        "▁bird",
        -9.647469409986579
      ],
      [
        "▁1969",
        -9.648829612684626
      ],
      [
        "▁broadcast",
        -9.649146371277423
      ],
      [
        "▁non-",
        -9.649154129761639
      ],
      [
        "▁musical",
        -9.649223569167214
      ],
      [
        "▁1.9",
        -9.649445652328275
      ],
      [
        "▁writing",
        -9.64977230909265
      ],
      [
        "ability",
        -9.649799044821686
      ],
      [
        "▁provide",
        -9.650073107368385
      ],
      [
        "ique",
        -9.650101562533086
      ],
      [
        "▁police",
        -9.651694525066269
      ],
      [
        "stein",
        -9.652352170168397
      ],
      [
        "▁d'",
        -9.653026024792545
      ],
      [
        "▁para",
        -9.653119220675649
      ],
      [
        "▁vocal",
        -9.653304050730794
      ],
      [
        "▁1930",
        -9.6534801786785
      ],
      [
        "<unk>Ba",
        -9.654184130449234
      ],
      [
        "<unk>German",
        -9.654341426510358
      ],
      [
        "▁Bern",
        -9.655750811086358
      ],
      [
        "hin",
        -9.655993347035423
      ],
      [
        "▁Boy",
        -9.656160053156626
      ],
      [
        "<unk>Mar",
        -9.656324528163685
      ],
      [
        "▁letter",
        -9.656692765636373
      ],
      [
        "-R",
        -9.657796242915124
      ],
      [
        "▁Yo",
        -9.659298878069297
      ],
      [
        "ties",
        -9.65945627631665
      ],
      [
        "▁1964",
        -9.659766151941708
      ],
      [
        "▁electric",
        -9.660360303335832
      ],
      [
        "▁Pra",
        -9.660648042933483
      ],
      [
        "▁2020)",
        -9.660904101365528
      ],
      [
        "▁\"C",
        -9.662624780803824
      ],
      [
        "matic",
        -9.663065661727796
      ],
      [
        "Because",
        -9.663089243248898
      ],
      [
        "3||0||",
        -9.663816848951969
      ],
      [
        "▁Northern",
        -9.664208057329779
      ],
      [
        "▁organization",
        -9.66554489631769
      ],
      [
        "▁Pennsylvania",
        -9.666434705892405
      ],
      [
        "fre",
        -9.666897412488234
      ],
      [
        "cker",
        -9.667350051218612
      ],
      [
        "▁\"T",
        -9.667476989432958
      ],
      [
        "▁Smith",
        -9.667753057963605
      ],
      [
        "▁Fer",
        -9.66844411105877
      ],
      [
        "▁release",
        -9.668597186664162
      ],
      [
        "▁(5",
        -9.669408548338383
      ],
      [
        "▁Ze",
        -9.66987196933235
      ],
      [
        "▁Massachusetts",
        -9.670012903761398
      ],
      [
        "▁working",
        -9.670717739244887
      ],
      [
        "<unk>This",
        -9.670836868789461
      ],
      [
        "▁energy",
        -9.672758506842545
      ],
      [
        "OR",
        -9.673562497016068
      ],
      [
        "aries",
        -9.673687343193922
      ],
      [
        "room",
        -9.674464965742082
      ],
      [
        "▁co-",
        -9.675748847308975
      ],
      [
        "▁plant",
        -9.677977792157726
      ],
      [
        "▁winning",
        -9.678770785222053
      ],
      [
        "▁Latin",
        -9.679376096999107
      ],
      [
        "▁murder",
        -9.679763256535098
      ],
      [
        "▁army",
        -9.67982227351809
      ],
      [
        "cture",
        -9.68058787198225
      ],
      [
        "▁Book",
        -9.680714832616703
      ],
      [
        "▁highest",
        -9.681126940703468
      ],
      [
        "▁Blue",
        -9.681412292193237
      ],
      [
        "<unk>Pro",
        -9.683138197819005
      ],
      [
        "▁Tur",
        -9.68395235762247
      ],
      [
        "bach",
        -9.683966223994554
      ],
      [
        "▁know",
        -9.68421001305043
      ],
      [
        "ball",
        -9.684646645076947
      ],
      [
        "▁Catalina",
        -9.685739564234941
      ],
      [
        ".<unk>Cities",
        -9.685902423270175
      ],
      [
        "ographic",
        -9.686309437713911
      ],
      [
        "Second",
        -9.686663853321553
      ],
      [
        "▁success",
        -9.68776844869969
      ],
      [
        "▁Land",
        -9.688085795719333
      ],
      [
        "▁Jack",
        -9.688269826654532
      ],
      [
        "▁least",
        -9.688664737584109
      ],
      [
        "▁agree",
        -9.690069375652394
      ],
      [
        "▁visit",
        -9.69037894903167
      ],
      [
        "▁officer",
        -9.690799378715194
      ],
      [
        "▁join",
        -9.690846831121398
      ],
      [
        "▁track",
        -9.691287248441094
      ],
      [
        "▁average",
        -9.692024896231507
      ],
      [
        "▁Korea",
        -9.692066634274068
      ],
      [
        "▁1967",
        -9.692100311020804
      ],
      [
        "cies",
        -9.692119125231127
      ],
      [
        "▁colon",
        -9.692149406543681
      ],
      [
        "▁blue",
        -9.692269238552596
      ],
      [
        "▁Mag",
        -9.69330063626553
      ],
      [
        "▁Don",
        -9.693537942441285
      ],
      [
        "pin",
        -9.694518304437512
      ],
      [
        "▁destroy",
        -9.694777815204972
      ],
      [
        "▁1940",
        -9.695953108033205
      ],
      [
        "▁arrondissement",
        -9.696723893395536
      ],
      [
        "▁Film",
        -9.696804406069212
      ],
      [
        "tract",
        -9.696854924857536
      ],
      [
        "TV",
        -9.697358298965234
      ],
      [
        "500",
        -9.6979396248831
      ],
      [
        "▁reason",
        -9.697984738946579
      ],
      [
        "▁Senate",
        -9.700017776968872
      ],
      [
        "▁successful",
        -9.700312519272828
      ],
      [
        "▁issue",
        -9.70055713054514
      ],
      [
        "<unk>17",
        -9.701449702048526
      ],
      [
        "<unk>Ho",
        -9.702223415082003
      ],
      [
        "▁himself",
        -9.703443231111288
      ],
      [
        "▁lawyer",
        -9.703595695998867
      ],
      [
        "▁Comp",
        -9.705020749136702
      ],
      [
        "position",
        -9.706267682982599
      ],
      [
        "▁Brazil",
        -9.707281489849882
      ],
      [
        "▁opened",
        -9.708039362930057
      ],
      [
        "▁chart",
        -9.709015246046807
      ],
      [
        "▁Korean",
        -9.713727363398478
      ],
      [
        "pher",
        -9.713790123665005
      ],
      [
        "mph",
        -9.715432249791299
      ],
      [
        "▁camp",
        -9.715706401726353
      ],
      [
        "▁forces",
        -9.717012527009853
      ],
      [
        "▁Joseph",
        -9.719730494878618
      ],
      [
        "▁conduct",
        -9.719983397775081
      ],
      [
        "ific",
        -9.720663484629839
      ],
      [
        "▁retired",
        -9.721062669603066
      ],
      [
        "rant",
        -9.721869392953645
      ],
      [
        "<unk>Ja",
        -9.722885320638438
      ],
      [
        "▁Jim",
        -9.724598003607879
      ],
      [
        "▁basketball",
        -9.724835989400537
      ],
      [
        "▁production",
        -9.725333529182965
      ],
      [
        "▁1945",
        -9.725379821776285
      ],
      [
        "▁storm",
        -9.72690549522916
      ],
      [
        "▁Wales",
        -9.727753809504865
      ],
      [
        "CSS",
        -9.7281706053974
      ],
      [
        "▁try",
        -9.728172084414412
      ],
      [
        "▁Hockey",
        -9.728407353279678
      ],
      [
        "▁Parliament",
        -9.728853407623625
      ],
      [
        "burn",
        -9.729123910873318
      ],
      [
        "▁job",
        -9.729872861618396
      ],
      [
        "▁Free",
        -9.730723941377908
      ],
      [
        "osaur",
        -9.731157181731966
      ],
      [
        "gram",
        -9.731612888317102
      ],
      [
        "▁network",
        -9.732441047445658
      ],
      [
        "▁Life",
        -9.732777504984679
      ],
      [
        "▁Congress",
        -9.733113688068475
      ],
      [
        "inger-songwriter",
        -9.734010365633035
      ],
      [
        "ington",
        -9.735817554999706
      ],
      [
        "Premier",
        -9.735882060297156
      ],
      [
        "▁Pat",
        -9.736032888585068
      ],
      [
        "▁Ven",
        -9.736166431654729
      ],
      [
        "▁separate",
        -9.736713723689531
      ],
      [
        "back",
        -9.737019917858966
      ],
      [
        "AS",
        -9.737557644264104
      ],
      [
        "▁girl",
        -9.737667584499368
      ],
      [
        "▁source",
        -9.739445392910323
      ],
      [
        "▁code",
        -9.740404617298024
      ],
      [
        "0||0||0||0||",
        -9.740639279876662
      ],
      [
        "<unk>Canadian",
        -9.741003432525897
      ],
      [
        "▁Scotland",
        -9.74190983412655
      ],
      [
        "▁painter",
        -9.742741051481808
      ],
      [
        "▁ground",
        -9.743066358737297
      ],
      [
        "▁Men",
        -9.743937332342131
      ],
      [
        "▁Lin",
        -9.744695847106273
      ],
      [
        "graph",
        -9.744839845307895
      ],
      [
        "<unk>1990",
        -9.74504017614807
      ],
      [
        "▁Gro",
        -9.746382690208675
      ],
      [
        "<unk>Co",
        -9.74647972294938
      ],
      [
        "▁occur",
        -9.74691825452676
      ],
      [
        "▁break",
        -9.74740499192667
      ],
      [
        "▁Gre",
        -9.747484719770112
      ],
      [
        "▁Camp",
        -9.747661890992857
      ],
      [
        "von",
        -9.748133420240366
      ],
      [
        "▁element",
        -9.748295311825922
      ],
      [
        "2||1",
        -9.74883730885521
      ],
      [
        "▁bad",
        -9.749174274546688
      ],
      [
        "▁across",
        -9.749198921785595
      ],
      [
        "▁Science",
        -9.749651790519836
      ],
      [
        "▁star",
        -9.74984198218581
      ],
      [
        "▁Islam",
        -9.75034521663991
      ],
      [
        "▁charge",
        -9.750394623186923
      ],
      [
        "▁currently",
        -9.7505883609213
      ],
      [
        "rought",
        -9.750656676999363
      ],
      [
        "▁Jackson",
        -9.75169410820466
      ],
      [
        "hood",
        -9.751780656647458
      ],
      [
        "▁whe",
        -9.751918055542932
      ],
      [
        "▁blood",
        -9.751941011035521
      ],
      [
        "▁chemical",
        -9.752387029431027
      ],
      [
        "▁instead",
        -9.752616033873572
      ],
      [
        "<unk>|}<unk>",
        -9.753334249756126
      ],
      [
        "According",
        -9.753532544008037
      ],
      [
        "▁Swedish",
        -9.754220085397867
      ],
      [
        "▁size",
        -9.754544142504844
      ],
      [
        "under",
        -9.75478860154259
      ],
      [
        "▁piece",
        -9.755842909566567
      ],
      [
        "▁performed",
        -9.756294286430375
      ],
      [
        "▁certain",
        -9.756541393204138
      ],
      [
        "▁Del",
        -9.756696512967848
      ],
      [
        "▁Missouri",
        -9.756748074170806
      ],
      [
        "▁Tour",
        -9.75698300576277
      ],
      [
        "▁amount",
        -9.757909157502734
      ],
      [
        "▁Brown",
        -9.759142972665291
      ],
      [
        "▁material",
        -9.759742655275142
      ],
      [
        "▁central",
        -9.76023390893886
      ],
      [
        "icle",
        -9.760737409584385
      ],
      [
        "▁temp",
        -9.762013322612503
      ],
      [
        "place",
        -9.762023575906527
      ],
      [
        "▁Jr.",
        -9.762338465321333
      ],
      [
        "▁Street",
        -9.762757313476481
      ],
      [
        "▁1966",
        -9.762837656200396
      ],
      [
        "▁interest",
        -9.763776793933909
      ],
      [
        "Work",
        -9.764076981192847
      ],
      [
        "▁either",
        -9.765550321363548
      ],
      [
        "▁Austrian",
        -9.765971836638903
      ],
      [
        "▁park",
        -9.768068571068225
      ],
      [
        "}<unk>References",
        -9.768953665608926
      ],
      [
        "▁gas",
        -9.770049115052839
      ],
      [
        "▁Jean",
        -9.77041735565656
      ],
      [
        "<unk>List",
        -9.77102289976565
      ],
      [
        "various",
        -9.771274575711297
      ],
      [
        "▁Force",
        -9.771288249133107
      ],
      [
        "Class",
        -9.772720025632525
      ],
      [
        "▁\"L",
        -9.773218099155754
      ],
      [
        "hara",
        -9.773389192475205
      ],
      [
        "▁stand",
        -9.774333506183487
      ],
      [
        "▁Zo",
        -9.77474539585761
      ],
      [
        "▁Disney",
        -9.77488341929847
      ],
      [
        "▁far",
        -9.776101968363001
      ],
      [
        "_",
        -9.776252385372784
      ],
      [
        "▁MP",
        -9.77661781980918
      ],
      [
        "▁architect",
        -9.777663274427606
      ],
      [
        "▁return",
        -9.77912353857856
      ],
      [
        "▁western",
        -9.779182889869002
      ],
      [
        "dict",
        -9.779281443974309
      ],
      [
        "▁Up",
        -9.779451617764877
      ],
      [
        "▁2.2",
        -9.779602536045523
      ],
      [
        "▁Tro",
        -9.780185197633804
      ],
      [
        ".<unk>Club",
        -9.780728330225267
      ],
      [
        "▁claim",
        -9.780729523665856
      ],
      [
        "▁always",
        -9.782859718048844
      ],
      [
        "FA",
        -9.783365623656477
      ],
      [
        "▁development",
        -9.784775951803873
      ],
      [
        "▁function",
        -9.78716889189515
      ],
      [
        "<unk>Notes",
        -9.78719702095883
      ],
      [
        "▁Ang",
        -9.787996391928287
      ],
      [
        "▁Pen",
        -9.788315166646829
      ],
      [
        "▁might",
        -9.78832839300502
      ],
      [
        "▁damage",
        -9.789473356735922
      ],
      [
        "▁Rome",
        -9.791986375982146
      ],
      [
        "▁2.1",
        -9.793196068094774
      ],
      [
        "▁Fox",
        -9.793900650389098
      ],
      [
        "▁independent",
        -9.795668172492753
      ],
      [
        "▁Cam",
        -9.796809393625088
      ],
      [
        "▁trade",
        -9.798179895787193
      ],
      [
        "lov",
        -9.798467773422686
      ],
      [
        "▁1947",
        -9.80029139244494
      ],
      [
        "▁Hor",
        -9.801877778961082
      ],
      [
        "▁education",
        -9.802385584840428
      ],
      [
        "▁Irish",
        -9.80435614661616
      ],
      [
        "▁1965",
        -9.804844202389297
      ],
      [
        "Columbia",
        -9.805278495153345
      ],
      [
        "bell",
        -9.806284324504645
      ],
      [
        "▁guitar",
        -9.807442610371645
      ],
      [
        "▁Iowa",
        -9.808976521217286
      ],
      [
        "▁Will",
        -9.809149814144485
      ],
      [
        "▁History",
        -9.809594500921163
      ],
      [
        "▁farm",
        -9.810374412689287
      ],
      [
        "▁Ocean",
        -9.810662203535687
      ],
      [
        "▁bank",
        -9.810865297005918
      ],
      [
        "<unk>New",
        -9.811919213601524
      ],
      [
        "▁Secretary",
        -9.813042271653007
      ],
      [
        "▁1956",
        -9.813506976449277
      ],
      [
        "▁division",
        -9.813601369232327
      ],
      [
        "▁minister",
        -9.814011149508286
      ],
      [
        "▁Steve",
        -9.81517426154153
      ],
      [
        "▁Para",
        -9.815248030013073
      ],
      [
        "▁reached",
        -9.81529840101008
      ],
      [
        "▁normal",
        -9.816495443359075
      ],
      [
        "▁citizen",
        -9.817421320990558
      ],
      [
        "▁Luc",
        -9.817899065072417
      ],
      [
        "▁1963",
        -9.81798131720371
      ],
      [
        "▁sister",
        -9.818332043512578
      ],
      [
        "roll",
        -9.818550862521981
      ],
      [
        "Before",
        -9.820297900156683
      ],
      [
        "▁past",
        -9.820481298263699
      ],
      [
        "International",
        -9.820635649826091
      ],
      [
        "east",
        -9.821308674606197
      ],
      [
        "▁college",
        -9.823303311272609
      ],
      [
        "▁1948",
        -9.823397425172066
      ],
      [
        "IV",
        -9.82662750943092
      ],
      [
        "▁arrest",
        -9.826770725428345
      ],
      [
        "▁cross",
        -9.82683968983627
      ],
      [
        "ndy",
        -9.827077026914946
      ],
      [
        "dorf",
        -9.827112802911682
      ],
      [
        "▁tea",
        -9.827181797829645
      ],
      [
        "▁involve",
        -9.827280713861782
      ],
      [
        "▁text",
        -9.828525867489763
      ],
      [
        "▁1961",
        -9.8292099505481
      ],
      [
        "▁health",
        -9.829422227983333
      ],
      [
        "▁\"W",
        -9.82951834542072
      ],
      [
        "▁compete",
        -9.831641600826574
      ],
      [
        "▁competition",
        -9.831943279822912
      ],
      [
        "▁hot",
        -9.832494358903718
      ],
      [
        "▁continu",
        -9.832725169105828
      ],
      [
        "▁stay",
        -9.833268981059861
      ],
      [
        "▁Duke",
        -9.83382343555132
      ],
      [
        "▁Brazilian",
        -9.83405923403271
      ],
      [
        "▁replaced",
        -9.836183018121307
      ],
      [
        "▁1962",
        -9.836676969134748
      ],
      [
        "bla",
        -9.836824093558832
      ],
      [
        "psych",
        -9.83761409926614
      ],
      [
        "▁hospital",
        -9.837910784277533
      ],
      [
        "BA",
        -9.838651615074932
      ],
      [
        "▁Institute",
        -9.83867421176642
      ],
      [
        "▁Poland",
        -9.83894322560289
      ],
      [
        "▁pay",
        -9.839518293184721
      ],
      [
        "▁Middle",
        -9.839660559872312
      ],
      [
        "▁Club",
        -9.840200188784053
      ],
      [
        "▁animated",
        -9.841915102056271
      ],
      [
        "▁Asian",
        -9.842126586089366
      ],
      [
        "▁flo",
        -9.842780822064071
      ],
      [
        "▁outside",
        -9.843286263107872
      ],
      [
        "▁eye",
        -9.843438212210211
      ],
      [
        "motion",
        -9.843812433631468
      ],
      [
        "▁little",
        -9.844920224790009
      ],
      [
        "<unk>Former",
        -9.845177486455665
      ],
      [
        "▁Polish",
        -9.845803211792033
      ],
      [
        "▁Bob",
        -9.846102331892299
      ],
      [
        "▁Maria",
        -9.84621132295929
      ],
      [
        "▁dead",
        -9.846308818129254
      ],
      [
        "▁Albert",
        -9.848711960641335
      ],
      [
        "Champion",
        -9.848827319622272
      ],
      [
        "▁1.1",
        -9.849035511704653
      ],
      [
        "▁project",
        -9.849212638726339
      ],
      [
        "▁Group",
        -9.850727560669162
      ],
      [
        "<unk>Na",
        -9.851752508504203
      ],
      [
        "▁bomb",
        -9.852158873876515
      ],
      [
        "▁Young",
        -9.852763271175546
      ],
      [
        "▁temperature",
        -9.853241863234354
      ],
      [
        "▁Michigan",
        -9.853241874126068
      ],
      [
        "head",
        -9.854231405741173
      ],
      [
        "▁Society",
        -9.855277435971539
      ],
      [
        "▁Trans",
        -9.855363688925669
      ],
      [
        "▁product",
        -9.8553810068732
      ],
      [
        "▁added",
        -9.855394470910282
      ],
      [
        "▁guitarist",
        -9.857059242214756
      ],
      [
        "mouth",
        -9.85817127906527
      ],
      [
        "The",
        -9.858704353919485
      ],
      [
        "present",
        -9.859679498942569
      ],
      [
        "rowspan=\"2\"|",
        -9.86001058744495
      ],
      [
        "▁Bavaria",
        -9.860144856806864
      ],
      [
        "▁engine",
        -9.86034451432761
      ],
      [
        "▁university",
        -9.860613574068054
      ],
      [
        "▁Song",
        -9.86111718196256
      ],
      [
        "-American",
        -9.861259178254574
      ],
      [
        "▁Civil",
        -9.861901269107843
      ],
      [
        "▁Nobel",
        -9.86222107821833
      ],
      [
        "▁Britain",
        -9.864170447119468
      ],
      [
        "▁influence",
        -9.864447666184365
      ],
      [
        "▁goes",
        -9.865927580333096
      ],
      [
        "▁especially",
        -9.866242003827525
      ],
      [
        "▁league",
        -9.86625766373594
      ],
      [
        "<unk>2021",
        -9.866279364190511
      ],
      [
        "▁Big",
        -9.866987014206265
      ],
      [
        "▁Louisiana",
        -9.867022941605454
      ],
      [
        "▁something",
        -9.868367926584819
      ],
      [
        "▁Town",
        -9.86891958723274
      ],
      [
        "▁front",
        -9.869104971268094
      ],
      [
        "▁Stra",
        -9.869206767053175
      ],
      [
        "▁Wood",
        -9.870279875055727
      ],
      [
        "<unk>US",
        -9.872923755793604
      ],
      [
        "▁statistics",
        -9.874059882631755
      ],
      [
        "▁2.3",
        -9.874401776867407
      ],
      [
        "▁baseball",
        -9.875839907480586
      ],
      [
        "▁perform",
        -9.876843823809924
      ],
      [
        "▁20th",
        -9.877030650505988
      ],
      [
        "▁degree",
        -9.877125403944579
      ],
      [
        "▁cannot",
        -9.877134758270433
      ],
      [
        "▁ancient",
        -9.877352943357394
      ],
      [
        "<unk>Mu",
        -9.878831711184795
      ],
      [
        "▁increase",
        -9.8791653825916
      ],
      [
        "▁Night",
        -9.880320256606478
      ],
      [
        "▁2.5",
        -9.881518655586836
      ],
      [
        "▁enough",
        -9.883213665119458
      ],
      [
        "▁Press",
        -9.883428679688807
      ],
      [
        "▁wrestler",
        -9.884104254200246
      ],
      [
        "▁\"H",
        -9.884300152960087
      ],
      [
        "▁(The",
        -9.885200306838282
      ],
      [
        "▁crash",
        -9.885431425149664
      ],
      [
        "▁municipalities",
        -9.886492274112557
      ],
      [
        "▁1942",
        -9.887642902883089
      ],
      [
        "▁1946",
        -9.887879297929857
      ],
      [
        "||||||||||",
        -9.887985040251
      ],
      [
        "<unk>Da",
        -9.888580914915853
      ],
      [
        "▁fast",
        -9.888969848727221
      ],
      [
        "▁symbol",
        -9.889873331843912
      ],
      [
        "dicate",
        -9.890112471334717
      ],
      [
        "▁possible",
        -9.890655994189585
      ],
      [
        "-born",
        -9.8907527263982
      ],
      [
        "▁condition",
        -9.89093536072313
      ],
      [
        "<unk>For",
        -9.891404794081337
      ],
      [
        "▁Lord",
        -9.891515725905073
      ],
      [
        ".<unk>Early",
        -9.89173627301573
      ],
      [
        "assi",
        -9.891765109981765
      ],
      [
        "▁companies",
        -9.891974444472872
      ],
      [
        "<unk>Some",
        -9.893133056411873
      ],
      [
        "||1||0||",
        -9.893372520852635
      ],
      [
        "▁pain",
        -9.894340189220385
      ],
      [
        "<unk>Lo",
        -9.894561366727396
      ],
      [
        "heim",
        -9.894611744521857
      ],
      [
        "▁Mill",
        -9.895186606501
      ],
      [
        "▁1941",
        -9.895187451317458
      ],
      [
        "▁theory",
        -9.89616371397531
      ],
      [
        "4||0||",
        -9.897387457067437
      ],
      [
        "▁article",
        -9.897435596605067
      ],
      [
        "▁historian",
        -9.897523955717135
      ],
      [
        "▁boy",
        -9.898076852993215
      ],
      [
        "▁1949",
        -9.89881484628646
      ],
      [
        "1||0<unk>",
        -9.898966127079166
      ],
      [
        "▁adult",
        -9.898990046651642
      ],
      [
        "▁Home",
        -9.899466954286877
      ],
      [
        "▁box",
        -9.901576698972457
      ],
      [
        "▁Since",
        -9.902444320586126
      ],
      [
        "▁1944",
        -9.903083587166886
      ],
      [
        "▁create",
        -9.903141692233103
      ],
      [
        "▁McC",
        -9.903326206176594
      ],
      [
        "▁previous",
        -9.90335713179377
      ],
      [
        "▁nominated",
        -9.903623084313141
      ],
      [
        "▁1957",
        -9.90431869558901
      ],
      [
        "▁1958",
        -9.904744997164048
      ],
      [
        "▁consist",
        -9.904796482571726
      ],
      [
        "<unk>Sh",
        -9.904939835143905
      ],
      [
        "▁related",
        -9.905546425692846
      ],
      [
        "▁Show",
        -9.905566177019589
      ],
      [
        "▁performance",
        -9.90588494580673
      ],
      [
        "▁1952",
        -9.907160225662194
      ],
      [
        "▁2.4",
        -9.907821296199694
      ],
      [
        "▁store",
        -9.908402178097052
      ],
      [
        "▁religion",
        -9.908695829716482
      ],
      [
        "▁FIFA",
        -9.90869644697601
      ],
      [
        "▁1939",
        -9.908977422397989
      ],
      [
        "▁Team",
        -9.90985265189506
      ],
      [
        "▁Fame",
        -9.910936567659506
      ],
      [
        "▁Two",
        -9.911512512816323
      ],
      [
        "▁market",
        -9.91225491193465
      ],
      [
        "▁Christ",
        -9.912892894166704
      ],
      [
        "ssel",
        -9.914047676970597
      ],
      [
        "▁measure",
        -9.915142633132909
      ],
      [
        "▁aircraft",
        -9.915550586130214
      ],
      [
        "worth",
        -9.915867538169335
      ],
      [
        "▁Pictures",
        -9.916504101870784
      ],
      [
        "▁1936",
        -9.916803512338925
      ],
      [
        "▁origin",
        -9.91762910312897
      ],
      [
        "▁Old",
        -9.918880066727967
      ],
      [
        "▁Muslim",
        -9.919191355778953
      ],
      [
        "Family",
        -9.921196782699022
      ],
      [
        "<unk>Con",
        -9.921284928087035
      ],
      [
        "▁Spi",
        -9.921373782091516
      ],
      [
        "▁1954",
        -9.922327548546528
      ],
      [
        "▁parents",
        -9.92326295903936
      ],
      [
        "#",
        -9.923618152865572
      ],
      [
        "▁appearance",
        -9.923765101865495
      ],
      [
        "▁magazine",
        -9.92434415775387
      ],
      [
        "▁Series",
        -9.924382753552356
      ],
      [
        "▁northwest",
        -9.92508016386424
      ],
      [
        "mainly",
        -9.925396788594762
      ],
      [
        "▁write",
        -9.927795195902153
      ],
      [
        "▁divided",
        -9.928434531713387
      ],
      [
        "▁1959",
        -9.92884638496703
      ],
      [
        "▁Adam",
        -9.929449254124709
      ],
      [
        "▁tropical",
        -9.92952435022798
      ],
      [
        "▁launch",
        -9.929823840029334
      ],
      [
        "Women's",
        -9.9308937673406
      ],
      [
        "state",
        -9.93256526445467
      ],
      [
        "▁1934",
        -9.933417132803891
      ],
      [
        "agne",
        -9.935213283388268
      ],
      [
        "▁Department",
        -9.935831673577475
      ],
      [
        "▁Francisco",
        -9.935943297010027
      ],
      [
        "▁Philip",
        -9.936416860131503
      ],
      [
        "▁Santa",
        -9.937807948282932
      ],
      [
        "▁drug",
        -9.93969907944316
      ],
      [
        "<unk>When",
        -9.940064608487404
      ],
      [
        "▁painting",
        -9.94108181996225
      ],
      [
        "▁surface",
        -9.942177273045097
      ],
      [
        "▁base",
        -9.943122209401311
      ],
      [
        "house",
        -9.943164842725837
      ],
      [
        "▁gun",
        -9.943704728140808
      ],
      [
        "▁comedian",
        -9.944436815881755
      ],
      [
        "▁Minnesota",
        -9.944671732691889
      ],
      [
        "▁Company",
        -9.944966531921606
      ],
      [
        "▁command",
        -9.945276260315064
      ],
      [
        "▁oldest",
        -9.945939510440663
      ],
      [
        "IS",
        -9.948510555740315
      ],
      [
        "▁Victoria",
        -9.948564714592047
      ],
      [
        "▁however",
        -9.948860436593378
      ],
      [
        "<unk>1980",
        -9.95052815734434
      ],
      [
        "▁instrument",
        -9.951077347994083
      ],
      [
        "▁shot",
        -9.951984190192876
      ],
      [
        "HM",
        -9.95271705138663
      ],
      [
        "▁centre",
        -9.953726628555136
      ],
      [
        "▁Oklahoma",
        -9.954431985792475
      ],
      [
        "▁1938",
        -9.954455472407806
      ],
      [
        "▁Bell",
        -9.95478211608304
      ],
      [
        "▁1920",
        -9.955281659330224
      ],
      [
        "▁Good",
        -9.955891281420847
      ],
      [
        "▁Pope",
        -9.956196205186085
      ],
      [
        "▁traditional",
        -9.95623452342741
      ],
      [
        "▁1955",
        -9.956387352056977
      ],
      [
        "duct",
        -9.957794079030084
      ],
      [
        "▁driver",
        -9.958375911287355
      ],
      [
        "▁candidate",
        -9.958926015725785
      ],
      [
        "▁Berlin",
        -9.95964027548683
      ],
      [
        "▁climate",
        -9.96061900220203
      ],
      [
        "▁serve",
        -9.961229937126822
      ],
      [
        "originally",
        -9.9613165414578
      ],
      [
        "mobile",
        -9.961594073723658
      ],
      [
        "▁Vietnam",
        -9.963722663702926
      ],
      [
        "▁finished",
        -9.964009731038798
      ],
      [
        "▁bass",
        -9.965027099155598
      ],
      [
        "▁method",
        -9.96515398953791
      ],
      [
        "▁Elst",
        -9.965273211818838
      ],
      [
        "bot",
        -9.965927072417408
      ],
      [
        "-sort-value=\"0.",
        -9.965987920347613
      ],
      [
        "▁awarded",
        -9.966565286336099
      ],
      [
        "▁Under",
        -9.967431217802606
      ],
      [
        "BS",
        -9.968159009369703
      ],
      [
        "▁shoot",
        -9.96855416040396
      ],
      [
        "long",
        -9.96871661321265
      ],
      [
        "▁eastern",
        -9.9689318636522
      ],
      [
        "▁southwest",
        -9.96897723333112
      ],
      [
        "▁screenwriter",
        -9.97081884998476
      ],
      [
        "▁1933",
        -9.972347067756504
      ],
      [
        "▁2.6",
        -9.972473004570848
      ],
      [
        "▁1929",
        -9.974648860409827
      ],
      [
        "▁1951",
        -9.977602702704385
      ],
      [
        "▁Government",
        -9.980263694222307
      ],
      [
        "While",
        -9.980542772806317
      ],
      [
        "▁campaign",
        -9.981992337193278
      ],
      [
        "▁shape",
        -9.982228823765373
      ],
      [
        "▁machine",
        -9.983732228605403
      ],
      [
        "▁limit",
        -9.98388480931314
      ],
      [
        "▁newspaper",
        -9.98429771765651
      ],
      [
        "<unk>Italian",
        -9.984883678409858
      ],
      [
        "▁share",
        -9.986000546604153
      ],
      [
        "*",
        -9.98603154039871
      ],
      [
        "▁value",
        -9.98665104891632
      ],
      [
        "▁1943",
        -9.988663772407056
      ],
      [
        "▁Order",
        -9.989016000778795
      ],
      [
        "▁Water",
        -9.989860622257781
      ],
      [
        "▁document",
        -9.99009292074077
      ],
      [
        "▁figure",
        -9.991833502392101
      ],
      [
        "▁nation",
        -9.992041227072242
      ],
      [
        "▁Little",
        -9.995930782719213
      ],
      [
        "-sur-",
        -9.996608866692988
      ],
      [
        "▁compound",
        -9.99708915807763
      ],
      [
        "▁Alexander",
        -9.99825343742476
      ],
      [
        "<unk>Un",
        -10.000294604321217
      ],
      [
        "▁image",
        -10.001622580470269
      ],
      [
        "▁1935",
        -10.001930863374263
      ],
      [
        "▁Mountain",
        -10.002397093748272
      ],
      [
        "▁1953",
        -10.002408705851822
      ],
      [
        "▁require",
        -10.003334409165085
      ],
      [
        "▁available",
        -10.003537515272681
      ],
      [
        "▁Gold",
        -10.004275210213745
      ],
      [
        "RA",
        -10.00570120470002
      ],
      [
        "▁develop",
        -10.008038284210663
      ],
      [
        "▁Chief",
        -10.009223900676915
      ],
      [
        "▁Airport",
        -10.00946504124922
      ],
      [
        "▁Alabama",
        -10.00973777919174
      ],
      [
        "▁businessman",
        -10.010378242059565
      ],
      [
        "read",
        -10.011285635878316
      ],
      [
        "▁1928",
        -10.01343478716745
      ],
      [
        "▁environment",
        -10.014487552545978
      ],
      [
        "▁starring",
        -10.015107869083366
      ],
      [
        "▁channel",
        -10.015977261030962
      ],
      [
        "▁feel",
        -10.016086723560125
      ],
      [
        "▁fle",
        -10.016839496781623
      ],
      [
        "▁regular",
        -10.017474058882055
      ],
      [
        "▁Game",
        -10.017879356747677
      ],
      [
        "▁1931",
        -10.018653134181974
      ],
      [
        "▁beginning",
        -10.018962025762214
      ],
      [
        "▁stories",
        -10.018979702318356
      ],
      [
        "Although",
        -10.02231451281269
      ],
      [
        "▁2.7",
        -10.022852978584938
      ],
      [
        "▁Tokyo",
        -10.023157766029438
      ],
      [
        ".<unk>Career",
        -10.02347188856477
      ],
      [
        "▁economic",
        -10.024055574389388
      ],
      [
        "▁introduced",
        -10.024055644974833
      ],
      [
        "▁1937",
        -10.025227798410892
      ],
      [
        "▁length",
        -10.025861057801226
      ],
      [
        "▁Pacific",
        -10.026164166147009
      ],
      [
        "▁told",
        -10.026685001357075
      ],
      [
        "▁Office",
        -10.029192858636403
      ],
      [
        "▁Wrestling",
        -10.029780225190953
      ],
      [
        "▁championship",
        -10.030050153655536
      ],
      [
        "▁governor",
        -10.035537888030419
      ],
      [
        "▁Revolution",
        -10.035603241695878
      ],
      [
        "▁green",
        -10.035696646329997
      ],
      [
        "▁romantic",
        -10.035842288935415
      ],
      [
        "▁1932",
        -10.036624774934578
      ],
      [
        "3rd",
        -10.036641193003856
      ],
      [
        "<unk>Ri",
        -10.038520599642471
      ],
      [
        "▁religious",
        -10.039801557337562
      ],
      [
        "▁accident",
        -10.039807189840023
      ],
      [
        "although",
        -10.039825230786299
      ],
      [
        "▁individual",
        -10.040717578116382
      ],
      [
        "<unk>2022",
        -10.040750242752507
      ],
      [
        "▁Service",
        -10.041635950034461
      ],
      [
        "-de-",
        -10.041846099880631
      ],
      [
        "▁slow",
        -10.042083634024824
      ],
      [
        "▁hurricane",
        -10.043777085454817
      ],
      [
        "▁Girl",
        -10.046053456871057
      ],
      [
        "▁Bridge",
        -10.046306308712307
      ],
      [
        "▁themselves",
        -10.0468460307805
      ],
      [
        "▁Jones",
        -10.047595460938517
      ],
      [
        "▁slave",
        -10.04857312559657
      ],
      [
        "▁Bank",
        -10.048927539681896
      ],
      [
        "▁attempt",
        -10.050233520438555
      ],
      [
        "▁distributed",
        -10.05115935548286
      ],
      [
        "English-language",
        -10.053445081842176
      ],
      [
        "▁Southern",
        -10.053608024648785
      ],
      [
        "▁legal",
        -10.053783008289383
      ],
      [
        "▁Jewish",
        -10.055492182099705
      ],
      [
        "comp",
        -10.057065964287595
      ],
      [
        "▁collection",
        -10.057100051698425
      ],
      [
        "▁teacher",
        -10.057143390944358
      ],
      [
        ".<unk>She",
        -10.05833100770795
      ],
      [
        "▁Armenia",
        -10.058455593816378
      ],
      [
        "▁middle",
        -10.05890672559069
      ],
      [
        "▁philosopher",
        -10.061085506883606
      ],
      [
        "rupt",
        -10.061916658863007
      ],
      [
        "▁brain",
        -10.061978543677343
      ],
      [
        "▁winner",
        -10.062151729147436
      ],
      [
        "<unk>Official",
        -10.062333365313327
      ],
      [
        "▁1926",
        -10.062648654719831
      ],
      [
        "▁Boston",
        -10.062815735208762
      ],
      [
        "▁Assembly",
        -10.062957882432544
      ],
      [
        "Serie",
        -10.063865247246797
      ],
      [
        "▁Mississippi",
        -10.06389537446166
      ],
      [
        "▁Daniel",
        -10.063995402755337
      ],
      [
        "<unk>Ne",
        -10.064145446410413
      ],
      [
        "▁Kentucky",
        -10.064208081192104
      ],
      [
        "▁3.0",
        -10.06573360712752
      ],
      [
        "▁2.8",
        -10.065763298276732
      ],
      [
        "▁Senator",
        -10.066744297804155
      ],
      [
        "▁animal",
        -10.067789735277703
      ],
      [
        "▁silver",
        -10.068985650024834
      ],
      [
        "▁tax",
        -10.06966388532766
      ],
      [
        "commun",
        -10.070390628889157
      ],
      [
        "▁Eastern",
        -10.072070011286275
      ],
      [
        "▁oil",
        -10.074320042209747
      ],
      [
        "▁affect",
        -10.075908324474401
      ],
      [
        "▁Mexican",
        -10.076163687883932
      ],
      [
        "▁honor",
        -10.076503931794761
      ],
      [
        "▁produce",
        -10.076551755864873
      ],
      [
        "▁tournament",
        -10.07711388121083
      ],
      [
        "<unk>From",
        -10.077698428747103
      ],
      [
        "▁2.9",
        -10.078122017581803
      ],
      [
        "Another",
        -10.078332029145166
      ],
      [
        "▁speed",
        -10.078690220307832
      ],
      [
        "▁wave",
        -10.07870206819952
      ],
      [
        "▁capture",
        -10.079097589569592
      ],
      [
        "▁miles",
        -10.080751214718124
      ],
      [
        "▁construct",
        -10.081151494035016
      ],
      [
        "Also",
        -10.081507615855484
      ],
      [
        "▁secret",
        -10.08220471608155
      ],
      [
        "▁table",
        -10.083184937418771
      ],
      [
        "▁doctor",
        -10.083477814598654
      ],
      [
        "<unk>National",
        -10.083487229829455
      ],
      [
        "▁standard",
        -10.084142038054212
      ],
      [
        "presidential",
        -10.084284595905304
      ],
      [
        "▁Director",
        -10.087623337386292
      ],
      [
        "▁1927",
        -10.089755142738559
      ],
      [
        "▁paper",
        -10.090092373080022
      ],
      [
        "▁Long",
        -10.090507312252026
      ],
      [
        "▁active",
        -10.090969359188176
      ],
      [
        "▁branch",
        -10.091324723651372
      ],
      [
        "▁3.1",
        -10.091711508725341
      ],
      [
        "-related",
        -10.091798622972354
      ],
      [
        "▁Road",
        -10.092820120113913
      ],
      [
        "▁draw",
        -10.093604889166736
      ],
      [
        "▁difficult",
        -10.09404681884954
      ],
      [
        "▁Valley",
        -10.094097284643963
      ],
      [
        "<unk>County",
        -10.094422842787232
      ],
      [
        "▁picture",
        -10.097951390464186
      ],
      [
        "▁raised",
        -10.099233820935348
      ],
      [
        "▁spread",
        -10.099581999636156
      ],
      [
        "▁husband",
        -10.102784760502841
      ],
      [
        "<unk>Musicians",
        -10.103760348125613
      ],
      [
        "▁About",
        -10.104495661919819
      ],
      [
        "▁Entertainment",
        -10.1050626426726
      ],
      [
        "disestablishment",
        -10.105083985050623
      ],
      [
        "▁minor",
        -10.105684078433338
      ],
      [
        "Azerbaijan",
        -10.106692900060722
      ],
      [
        "▁weapon",
        -10.10832984210908
      ],
      [
        "script",
        -10.110085092481155
      ],
      [
        "▁nine",
        -10.110089630278056
      ],
      [
        "stream",
        -10.110955806665075
      ],
      [
        "▁summer",
        -10.111679918506253
      ],
      [
        "▁medical",
        -10.111977246341722
      ],
      [
        "▁Ontario",
        -10.112584236167233
      ],
      [
        "<unk>Jo",
        -10.11265065937712
      ],
      [
        "Origin",
        -10.112731365254204
      ],
      [
        "▁Tennessee",
        -10.115213352299572
      ],
      [
        "▁inhabitants",
        -10.11521335558028
      ],
      [
        "▁subject",
        -10.115214268933286
      ],
      [
        "▁Nazi",
        -10.115750756123031
      ],
      [
        "▁heavy",
        -10.116555503556272
      ],
      [
        "▁relationship",
        -10.117520596955403
      ],
      [
        "▁Elizabeth",
        -10.119831535339491
      ],
      [
        "▁professor",
        -10.120823936883387
      ],
      [
        "▁Windows",
        -10.120824378921968
      ],
      [
        "▁3.2",
        -10.121852000194492
      ],
      [
        "<unk>Cha",
        -10.12348228752808
      ],
      [
        "▁broke",
        -10.124083945908234
      ],
      [
        "▁square",
        -10.12415092561932
      ],
      [
        "▁judge",
        -10.12582035414117
      ],
      [
        "▁saw",
        -10.127999878428325
      ],
      [
        "scription",
        -10.12854249143705
      ],
      [
        "2||0<unk>",
        -10.129182360083764
      ],
      [
        "<unk>Footballers",
        -10.12981051741611
      ],
      [
        "▁photograph",
        -10.130857764999687
      ],
      [
        "▁except",
        -10.131036115832442
      ],
      [
        "▁3.5",
        -10.13208507486232
      ],
      [
        "▁historical",
        -10.134491332166736
      ],
      [
        "▁3.4",
        -10.134918327382653
      ],
      [
        "rowspan=\"4\"|",
        -10.135157505665472
      ],
      [
        "▁academic",
        -10.135157574949776
      ],
      [
        "(with",
        -10.135785415249883
      ],
      [
        "▁focus",
        -10.135831696018325
      ],
      [
        "▁concert",
        -10.136543487941111
      ],
      [
        "▁private",
        -10.138520653725806
      ],
      [
        "▁parish",
        -10.139273600397544
      ],
      [
        "▁Mr.",
        -10.139377540184496
      ],
      [
        "▁Czech",
        -10.140212141593704
      ],
      [
        "▁bridge",
        -10.141143518650178
      ],
      [
        "▁rank",
        -10.14351374665632
      ],
      [
        "Ancient",
        -10.144024639730105
      ],
      [
        "▁defend",
        -10.144294361773122
      ],
      [
        "▁Major",
        -10.144639810912318
      ],
      [
        "▁problem",
        -10.145102384460124
      ],
      [
        "▁multiple",
        -10.145757165080909
      ],
      [
        "▁executive",
        -10.146298743286193
      ],
      [
        "▁accept",
        -10.146299471376839
      ],
      [
        "▁athlete",
        -10.146644482871215
      ],
      [
        "▁Paralympic",
        -10.146977975493986
      ],
      [
        "▁entire",
        -10.149471917735855
      ],
      [
        "▁attend",
        -10.151693774864917
      ],
      [
        "▁build",
        -10.152108421416434
      ],
      [
        "▁block",
        -10.152772364423889
      ],
      [
        "▁flight",
        -10.153631825915042
      ],
      [
        "▁biggest",
        -10.154484561088829
      ],
      [
        "▁(<unk>)",
        -10.157452230078015
      ],
      [
        "▁Wisconsin",
        -10.157908911579785
      ],
      [
        "▁quickly",
        -10.158940271925056
      ],
      [
        "▁addition",
        -10.160816685680988
      ],
      [
        "▁multi",
        -10.164727380364017
      ],
      [
        "▁dark",
        -10.164911246082355
      ],
      [
        "▁3.3",
        -10.16519896252495
      ],
      [
        "▁representative",
        -10.166782246575835
      ],
      [
        "▁Bangladesh",
        -10.170350751594796
      ],
      [
        "▁genus",
        -10.17178564216465
      ],
      [
        "Olymp",
        -10.172655651185881
      ],
      [
        "▁physicist",
        -10.173485558854928
      ],
      [
        ".<unk>Cast",
        -10.174301566198817
      ],
      [
        "▁Lady",
        -10.177286498191712
      ],
      [
        "▁Moscow",
        -10.178383569920816
      ],
      [
        "work",
        -10.179878028430526
      ],
      [
        "▁suggest",
        -10.180136807239416
      ],
      [
        "▁Committee",
        -10.181190038623322
      ],
      [
        "load",
        -10.181207521671382
      ],
      [
        "<unk>1970",
        -10.18312328710909
      ],
      [
        "▁equal",
        -10.184737338373061
      ],
      [
        "▁marriage",
        -10.185417789838361
      ],
      [
        "craft",
        -10.1882085343431
      ],
      [
        "▁device",
        -10.188270610877236
      ],
      [
        "▁acid",
        -10.188609904487702
      ],
      [
        "Portuguese",
        -10.18895432476523
      ],
      [
        ">",
        -10.18930866473752
      ],
      [
        "▁Cross",
        -10.189724247589513
      ],
      [
        "5||0||",
        -10.190645097160566
      ],
      [
        "▁Arthur",
        -10.190761714726515
      ],
      [
        "▁editor",
        -10.192881195481654
      ],
      [
        "▁Andrew",
        -10.193535646073641
      ],
      [
        "▁safe",
        -10.194085414543148
      ],
      [
        "▁throughout",
        -10.195390410635035
      ],
      [
        "<unk>Villages",
        -10.195708693704024
      ],
      [
        "▁3.6",
        -10.195986159031067
      ],
      [
        "▁discover",
        -10.19632244350381
      ],
      [
        "where",
        -10.198114802839314
      ],
      [
        "▁federal",
        -10.198210136548198
      ],
      [
        "▁jazz",
        -10.199309038582463
      ],
      [
        "▁operation",
        -10.200272370279444
      ],
      [
        "▁Indonesia",
        -10.200715448719963
      ],
      [
        "▁edition",
        -10.201432659813596
      ],
      [
        "▁practice",
        -10.202509188439723
      ],
      [
        "▁Romania",
        -10.203524494696842
      ],
      [
        "▁System",
        -10.204668607231019
      ],
      [
        "<unk>Television",
        -10.205026403016882
      ],
      [
        "▁collect",
        -10.205341175203948
      ],
      [
        "▁Arkansas",
        -10.206467265732279
      ],
      [
        "First",
        -10.207128227193579
      ],
      [
        "▁Navy",
        -10.207952474292473
      ],
      [
        "▁families",
        -10.208272089630583
      ],
      [
        "▁WWE",
        -10.20827724081704
      ],
      [
        "▁association",
        -10.208632952819823
      ],
      [
        "<unk>Spanish",
        -10.209718410088787
      ],
      [
        "▁depend",
        -10.210171849151147
      ],
      [
        "▁chemist",
        -10.210444937664118
      ],
      [
        "▁selected",
        -10.211166707711447
      ],
      [
        "▁appointed",
        -10.211527936915259
      ],
      [
        "nnie",
        -10.211622558179123
      ],
      [
        "abad",
        -10.211814596384105
      ],
      [
        "▁true",
        -10.213564890561809
      ],
      [
        "commonly",
        -10.21439029782923
      ],
      [
        "▁observ",
        -10.214432107577483
      ],
      [
        "▁graduate",
        -10.215175245335917
      ],
      [
        "▁horse",
        -10.215544314737087
      ],
      [
        "▁running",
        -10.2160446631577
      ],
      [
        "<unk>Japanese",
        -10.216256177594122
      ],
      [
        "▁feet",
        -10.216963273750894
      ],
      [
        "▁kept",
        -10.21717621150531
      ],
      [
        "▁railway",
        -10.218437415705457
      ],
      [
        "<unk>Australian",
        -10.219599076454534
      ],
      [
        "▁Swiss",
        -10.22027583612428
      ],
      [
        "▁mathematician",
        -10.220628719166033
      ],
      [
        "▁occup",
        -10.221727724100198
      ],
      [
        "▁native",
        -10.222704450532778
      ],
      [
        "women's",
        -10.223249876376835
      ],
      [
        "▁Constitution",
        -10.223925869164962
      ],
      [
        "probably",
        -10.226129915240982
      ],
      [
        "becoming",
        -10.226140668327103
      ],
      [
        "▁experience",
        -10.226865035022342
      ],
      [
        "▁asked",
        -10.227968466018773
      ],
      [
        "Sometimes",
        -10.230809796293887
      ],
      [
        "▁surround",
        -10.231290610102825
      ],
      [
        "▁Greece",
        -10.23130456355455
      ],
      [
        "▁passenger",
        -10.23203588022118
      ],
      [
        "<unk>Musical",
        -10.235753272819696
      ],
      [
        "▁3.7",
        -10.235826364950665
      ],
      [
        "▁songwriter",
        -10.236107211534437
      ],
      [
        "▁section",
        -10.236547841564747
      ],
      [
        "forced",
        -10.236585967755225
      ],
      [
        "Japan",
        -10.237254197732742
      ],
      [
        "▁lung",
        -10.239494040795073
      ],
      [
        "▁fought",
        -10.242068364511422
      ],
      [
        "▁label",
        -10.242626843984603
      ],
      [
        "▁Federal",
        -10.243949703070825
      ],
      [
        "▁Stephen",
        -10.244688799057457
      ],
      [
        "▁behind",
        -10.245100672440135
      ],
      [
        "▁territory",
        -10.245810694943959
      ],
      [
        "▁Turkey",
        -10.246201697283015
      ],
      [
        "▁protest",
        -10.247039556024571
      ],
      [
        "▁Commission",
        -10.247187865009632
      ],
      [
        "point",
        -10.247621728662782
      ],
      [
        "▁Century",
        -10.248063495523407
      ],
      [
        "▁Jews",
        -10.248742290871423
      ],
      [
        "▁museum",
        -10.249570143910002
      ],
      [
        "▁distance",
        -10.25071846145715
      ],
      [
        "▁Medal",
        -10.250814308065546
      ],
      [
        "▁software",
        -10.251451995381252
      ],
      [
        "<unk>History",
        -10.25166851206112
      ],
      [
        "▁file",
        -10.255513493104868
      ],
      [
        "▁poor",
        -10.255617390954363
      ],
      [
        "<unk>Cancer",
        -10.256761693175356
      ],
      [
        "continent",
        -10.256776184943478
      ],
      [
        "▁3.8",
        -10.257092343417934
      ],
      [
        "▁billion",
        -10.258275445289957
      ],
      [
        "<unk>Indian",
        -10.258616051453277
      ],
      [
        "▁Observatory",
        -10.259023296612611
      ],
      [
        "▁spoken",
        -10.259793070604315
      ],
      [
        "▁drink",
        -10.26054923856546
      ],
      [
        "▁Belgian",
        -10.261690893681187
      ],
      [
        "▁Philippines",
        -10.262449851351967
      ],
      [
        "▁3.9",
        -10.263951787196376
      ],
      [
        "3||0<unk>",
        -10.264170418946085
      ],
      [
        "▁drive",
        -10.26576305388208
      ],
      [
        "▁Festival",
        -10.265887057159789
      ],
      [
        "▁Public",
        -10.265889438863713
      ],
      [
        "Oliv",
        -10.267911573205586
      ],
      [
        "▁Toronto",
        -10.268572291649281
      ],
      [
        "▁access",
        -10.269016906034198
      ],
      [
        "▁clear",
        -10.269708261725311
      ],
      [
        "▁Justice",
        -10.270109069140577
      ],
      [
        "Football",
        -10.271156281612965
      ],
      [
        "<unk>Singers",
        -10.271746231153205
      ],
      [
        "▁southeast",
        -10.272999279990842
      ],
      [
        "▁declare",
        -10.273577927833175
      ],
      [
        "▁stroke",
        -10.275518056118825
      ],
      [
        "▁Donald",
        -10.2755658787122
      ],
      [
        "▁hydro",
[...]
